#ifdef __has_attribute
#define HAVE_ATTRIBUTE(x) __has_attribute(x)
#else
#define HAVE_ATTRIBUTE(x) 0
#endif
#if HAVE_ATTRIBUTE(aligned) || (defined(__GNUC__) && !defined(__clang__))
#define DATA_ALIGN_ATTRIBUTE __attribute__((aligned(4)))
#else
#define DATA_ALIGN_ATTRIBUTE
#endif

const unsigned char model_data[] DATA_ALIGN_ATTRIBUTE = {
	0x1c, 0x00, 0x00, 0x00, 0x54, 0x46, 0x4c, 0x33, 0x14, 0x00, 0x20, 0x00, 
	0x04, 0x00, 0x08, 0x00, 0x0c, 0x00, 0x10, 0x00, 0x14, 0x00, 0x00, 0x00, 
	0x18, 0x00, 0x1c, 0x00, 0x14, 0x00, 0x00, 0x00, 0x03, 0x00, 0x00, 0x00, 
	0x18, 0x00, 0x00, 0x00, 0x1c, 0x00, 0x00, 0x00, 0xa8, 0x00, 0x00, 0x00, 
	0x1c, 0x00, 0x00, 0x00, 0x50, 0x00, 0x00, 0x00, 0x48, 0x00, 0x00, 0x00, 
	0x01, 0x00, 0x00, 0x00, 0xc0, 0x02, 0x00, 0x00, 0x01, 0x00, 0x00, 0x00, 
	0xb0, 0x00, 0x00, 0x00, 0x0c, 0x00, 0x00, 0x00, 0xd4, 0x0a, 0x00, 0x00, 
	0xd0, 0x0a, 0x00, 0x00, 0xbc, 0x09, 0x00, 0x00, 0x08, 0x09, 0x00, 0x00, 
	0x9c, 0x08, 0x00, 0x00, 0x0c, 0x08, 0x00, 0x00, 0xb8, 0x03, 0x00, 0x00, 
	0x24, 0x03, 0x00, 0x00, 0xb4, 0x0a, 0x00, 0x00, 0xb0, 0x0a, 0x00, 0x00, 
	0xac, 0x0a, 0x00, 0x00, 0x3c, 0x00, 0x00, 0x00, 0x00, 0x00, 0x00, 0x00, 
	0x01, 0x00, 0x00, 0x00, 0x0c, 0x00, 0x00, 0x00, 0x08, 0x00, 0x0c, 0x00, 
	0x04, 0x00, 0x08, 0x00, 0x08, 0x00, 0x00, 0x00, 0x08, 0x00, 0x00, 0x00, 
	0x0b, 0x00, 0x00, 0x00, 0x13, 0x00, 0x00, 0x00, 0x6d, 0x69, 0x6e, 0x5f, 
	0x72, 0x75, 0x6e, 0x74, 0x69, 0x6d, 0x65, 0x5f, 0x76, 0x65, 0x72, 0x73, 
	0x69, 0x6f, 0x6e, 0x00, 0xaa, 0xf6, 0xff, 0xff, 0x04, 0x00, 0x00, 0x00, 
	0x10, 0x00, 0x00, 0x00, 0x31, 0x2e, 0x35, 0x2e, 0x30, 0x00, 0x00, 0x00, 
	0x00, 0x00, 0x00, 0x00, 0x00, 0x00, 0x00, 0x00, 0x0f, 0x00, 0x00, 0x00, 
	0x4d, 0x4c, 0x49, 0x52, 0x20, 0x43, 0x6f, 0x6e, 0x76, 0x65, 0x72, 0x74, 
	0x65, 0x64, 0x2e, 0x00, 0x00, 0x00, 0x0e, 0x00, 0x18, 0x00, 0x04, 0x00, 
	0x08, 0x00, 0x0c, 0x00, 0x10, 0x00, 0x14, 0x00, 0x0e, 0x00, 0x00, 0x00, 
	0x14, 0x00, 0x00, 0x00, 0x3c, 0x00, 0x00, 0x00, 0x40, 0x00, 0x00, 0x00, 
	0x44, 0x00, 0x00, 0x00, 0x50, 0x00, 0x00, 0x00, 0x0a, 0x00, 0x00, 0x00, 
	0xc8, 0x09, 0x00, 0x00, 0x58, 0x09, 0x00, 0x00, 0x94, 0x08, 0x00, 0x00, 
	0xec, 0x07, 0x00, 0x00, 0x98, 0x07, 0x00, 0x00, 0x04, 0x07, 0x00, 0x00, 
	0xb0, 0x02, 0x00, 0x00, 0xe0, 0x01, 0x00, 0x00, 0xec, 0x00, 0x00, 0x00, 
	0x60, 0x00, 0x00, 0x00, 0x01, 0x00, 0x00, 0x00, 0x00, 0x00, 0x00, 0x00, 
	0x01, 0x00, 0x00, 0x00, 0x09, 0x00, 0x00, 0x00, 0x03, 0x00, 0x00, 0x00, 
	0x68, 0x01, 0x00, 0x00, 0x98, 0x00, 0x00, 0x00, 0x10, 0x00, 0x00, 0x00, 
	0x04, 0x00, 0x00, 0x00, 0x6d, 0x61, 0x69, 0x6e, 0x00, 0x00, 0x00, 0x00, 
	0x8a, 0xff, 0xff, 0xff, 0x00, 0x00, 0x00, 0x08, 0x18, 0x00, 0x00, 0x00, 
	0x0c, 0x00, 0x00, 0x00, 0x04, 0x00, 0x00, 0x00, 0x5c, 0xf6, 0xff, 0xff, 
	0x01, 0x00, 0x00, 0x00, 0x09, 0x00, 0x00, 0x00, 0x03, 0x00, 0x00, 0x00, 
	0x08, 0x00, 0x00, 0x00, 0x06, 0x00, 0x00, 0x00, 0x03, 0x00, 0x00, 0x00, 
	0xd0, 0xf6, 0xff, 0xff, 0x14, 0x00, 0x00, 0x00, 0x0a, 0x00, 0x00, 0x00, 
	0x18, 0x00, 0x00, 0x00, 0x30, 0x00, 0x00, 0x00, 0x20, 0x00, 0x00, 0x00, 
	0x02, 0x00, 0x00, 0x00, 0x01, 0x00, 0x00, 0x00, 0x01, 0x00, 0x00, 0x00, 
	0x08, 0x00, 0x00, 0x00, 0x49, 0x64, 0x65, 0x6e, 0x74, 0x69, 0x74, 0x79, 
	0x00, 0x00, 0x00, 0x00, 0x02, 0x00, 0x00, 0x00, 0xff, 0xff, 0xff, 0xff, 
	0x01, 0x00, 0x00, 0x00, 0xd4, 0xf7, 0xff, 0xff, 0x00, 0x00, 0x0e, 0x00, 
	0x14, 0x00, 0x00, 0x00, 0x08, 0x00, 0x0c, 0x00, 0x07, 0x00, 0x10, 0x00, 
	0x0e, 0x00, 0x00, 0x00, 0x00, 0x00, 0x00, 0x08, 0x1c, 0x00, 0x00, 0x00, 
	0x10, 0x00, 0x00, 0x00, 0x04, 0x00, 0x00, 0x00, 0x32, 0xff, 0xff, 0xff, 
	0x00, 0x00, 0x00, 0x01, 0x01, 0x00, 0x00, 0x00, 0x08, 0x00, 0x00, 0x00, 
	0x03, 0x00, 0x00, 0x00, 0x07, 0x00, 0x00, 0x00, 0x05, 0x00, 0x00, 0x00, 
	0x02, 0x00, 0x00, 0x00, 0x58, 0xf7, 0xff, 0xff, 0x14, 0x00, 0x00, 0x00, 
	0x09, 0x00, 0x00, 0x00, 0x18, 0x00, 0x00, 0x00, 0x74, 0x00, 0x00, 0x00, 
	0x64, 0x00, 0x00, 0x00, 0x02, 0x00, 0x00, 0x00, 0x01, 0x00, 0x00, 0x00, 
	0x10, 0x00, 0x00, 0x00, 0x4c, 0x00, 0x00, 0x00, 0x73, 0x65, 0x71, 0x75, 
	0x65, 0x6e, 0x74, 0x69, 0x61, 0x6c, 0x2f, 0x64, 0x65, 0x6e, 0x73, 0x65, 
	0x5f, 0x31, 0x2f, 0x4d, 0x61, 0x74, 0x4d, 0x75, 0x6c, 0x3b, 0x73, 0x65, 
	0x71, 0x75, 0x65, 0x6e, 0x74, 0x69, 0x61, 0x6c, 0x2f, 0x64, 0x65, 0x6e, 
	0x73, 0x65, 0x5f, 0x31, 0x2f, 0x52, 0x65, 0x6c, 0x75, 0x3b, 0x73, 0x65, 
	0x71, 0x75, 0x65, 0x6e, 0x74, 0x69, 0x61, 0x6c, 0x2f, 0x64, 0x65, 0x6e, 
	0x73, 0x65, 0x5f, 0x31, 0x2f, 0x42, 0x69, 0x61, 0x73, 0x41, 0x64, 0x64, 
	0x00, 0x00, 0x00, 0x00, 0x02, 0x00, 0x00, 0x00, 0xff, 0xff, 0xff, 0xff, 
	0x10, 0x00, 0x00, 0x00, 0xa0, 0xf8, 0xff, 0xff, 0x00, 0x00, 0x0e, 0x00, 
	0x16, 0x00, 0x00, 0x00, 0x08, 0x00, 0x0c, 0x00, 0x07, 0x00, 0x10, 0x00, 
	0x0e, 0x00, 0x00, 0x00, 0x00, 0x00, 0x00, 0x08, 0x24, 0x00, 0x00, 0x00, 
	0x18, 0x00, 0x00, 0x00, 0x0c, 0x00, 0x00, 0x00, 0x00, 0x00, 0x06, 0x00, 
	0x08, 0x00, 0x07, 0x00, 0x06, 0x00, 0x00, 0x00, 0x00, 0x00, 0x00, 0x01, 
	0x01, 0x00, 0x00, 0x00, 0x07, 0x00, 0x00, 0x00, 0x03, 0x00, 0x00, 0x00, 
	0x00, 0x00, 0x00, 0x00, 0x04, 0x00, 0x00, 0x00, 0x01, 0x00, 0x00, 0x00, 
	0x0c, 0x00, 0x10, 0x00, 0x0b, 0x00, 0x00, 0x00, 0x0c, 0x00, 0x04, 0x00, 
	0x0c, 0x00, 0x00, 0x00, 0x09, 0x00, 0x00, 0x00, 0x00, 0x00, 0x00, 0x09, 
	0x01, 0x00, 0x00, 0x00, 0x48, 0xf8, 0xff, 0xff, 0x14, 0x00, 0x00, 0x00, 
	0x08, 0x00, 0x00, 0x00, 0x18, 0x00, 0x00, 0x00, 0x6c, 0x00, 0x00, 0x00, 
	0x5c, 0x00, 0x00, 0x00, 0x02, 0x00, 0x00, 0x00, 0x01, 0x00, 0x00, 0x00, 
	0x10, 0x00, 0x00, 0x00, 0x46, 0x00, 0x00, 0x00, 0x73, 0x65, 0x71, 0x75, 
	0x65, 0x6e, 0x74, 0x69, 0x61, 0x6c, 0x2f, 0x64, 0x65, 0x6e, 0x73, 0x65, 
	0x2f, 0x4d, 0x61, 0x74, 0x4d, 0x75, 0x6c, 0x3b, 0x73, 0x65, 0x71, 0x75, 
	0x65, 0x6e, 0x74, 0x69, 0x61, 0x6c, 0x2f, 0x64, 0x65, 0x6e, 0x73, 0x65, 
	0x2f, 0x52, 0x65, 0x6c, 0x75, 0x3b, 0x73, 0x65, 0x71, 0x75, 0x65, 0x6e, 
	0x74, 0x69, 0x61, 0x6c, 0x2f, 0x64, 0x65, 0x6e, 0x73, 0x65, 0x2f, 0x42, 
	0x69, 0x61, 0x73, 0x41, 0x64, 0x64, 0x00, 0x00, 0x02, 0x00, 0x00, 0x00, 
	0xff, 0xff, 0xff, 0xff, 0x10, 0x00, 0x00, 0x00, 0x6c, 0xf8, 0xff, 0xff, 
	0x82, 0xf9, 0xff, 0xff, 0x04, 0x00, 0x00, 0x00, 0x40, 0x00, 0x00, 0x00, 
	0x55, 0xec, 0xde, 0xbe, 0x6f, 0xe8, 0x0c, 0xbf, 0x6c, 0x65, 0x1f, 0x3f, 
	0x80, 0x39, 0xab, 0xbe, 0x4b, 0x4e, 0x0c, 0xbf, 0xc2, 0x75, 0x08, 0x3f, 
	0xbb, 0x4c, 0xff, 0xbe, 0xb0, 0x82, 0x65, 0xbe, 0x35, 0x7b, 0x0e, 0x40, 
	0x7b, 0xbd, 0x00, 0xbf, 0xfc, 0x03, 0x0b, 0x3f, 0xfe, 0xe7, 0x88, 0xbf, 
	0x00, 0xd5, 0x00, 0x3d, 0xd5, 0x1e, 0x17, 0xbf, 0x90, 0xc7, 0xe8, 0xbe, 
	0x58, 0x0c, 0xa4, 0x3e, 0x7a, 0xf9, 0xff, 0xff, 0x10, 0x00, 0x00, 0x00, 
	0x07, 0x00, 0x00, 0x00, 0x14, 0x00, 0x00, 0x00, 0x30, 0x00, 0x00, 0x00, 
	0x02, 0x00, 0x00, 0x00, 0x01, 0x00, 0x00, 0x00, 0x10, 0x00, 0x00, 0x00, 
	0x19, 0x00, 0x00, 0x00, 0x73, 0x65, 0x71, 0x75, 0x65, 0x6e, 0x74, 0x69, 
	0x61, 0x6c, 0x2f, 0x64, 0x65, 0x6e, 0x73, 0x65, 0x5f, 0x32, 0x2f, 0x4d, 
	0x61, 0x74, 0x4d, 0x75, 0x6c, 0x00, 0x00, 0x00, 0xfc, 0xf8, 0xff, 0xff, 
	0x12, 0xfa, 0xff, 0xff, 0x04, 0x00, 0x00, 0x00, 0x00, 0x04, 0x00, 0x00, 
	0xca, 0x81, 0x98, 0xbe, 0xd3, 0x4a, 0xb7, 0xbe, 0xb9, 0x18, 0xa9, 0x3e, 
	0xb2, 0x75, 0x02, 0x3e, 0x37, 0xf9, 0x99, 0x3e, 0xa4, 0xea, 0xd7, 0xbe, 
	0x5d, 0x2f, 0x8c, 0x3e, 0x96, 0xcf, 0x8b, 0xbe, 0xe3, 0x2b, 0xd8, 0xbe, 
	0x64, 0xf6, 0x82, 0xbd, 0x2b, 0x1b, 0xcc, 0x3e, 0x80, 0xc3, 0x9b, 0x3c, 
	0x80, 0x08, 0x5c, 0x3c, 0xd9, 0x70, 0x83, 0xbe, 0x68, 0xfd, 0xcf, 0xbe, 
	0x7d, 0x5b, 0xbe, 0x3e, 0x00, 0xcf, 0xc6, 0xbc, 0xe0, 0xdc, 0x69, 0x3d, 
	0xc2, 0x52, 0x16, 0xbe, 0xcf, 0x83, 0xbc, 0x3e, 0x32, 0x7b, 0x46, 0x3e, 
	0x80, 0x42, 0x79, 0x3c, 0x96, 0xab, 0x23, 0x3e, 0x7b, 0x37, 0xa6, 0xbe, 
	0x6e, 0x5f, 0xd5, 0xbe, 0xe5, 0x76, 0xda, 0x3e, 0x00, 0x0e, 0x9d, 0xbe, 
	0x50, 0xe6, 0x9c, 0xbd, 0x5d, 0xd0, 0x4d, 0xbe, 0xee, 0xe7, 0x19, 0x3e, 
	0x05, 0xea, 0xd0, 0xbe, 0x6a, 0x08, 0x61, 0xbe, 0xb0, 0x74, 0x31, 0xbe, 
	0xf0, 0x72, 0x1d, 0xbe, 0x6c, 0x34, 0xce, 0x3d, 0xea, 0xb6, 0xaf, 0xbe, 
	0x2e, 0x04, 0x1e, 0x3e, 0xf0, 0x82, 0x75, 0xbd, 0x24, 0xf7, 0xc2, 0xbe, 
	0xff, 0x5b, 0x0c, 0x3f, 0x13, 0x60, 0x82, 0x3e, 0x92, 0x54, 0x4f, 0x3e, 
	0xc0, 0xab, 0x87, 0xbc, 0xc7, 0xd9, 0x8f, 0x3e, 0x07, 0x05, 0x86, 0x3e, 
	0x6b, 0x2c, 0x3e, 0xbe, 0xbf, 0xd1, 0xea, 0x3c, 0xe2, 0xe6, 0xbf, 0x3e, 
	0xbe, 0x55, 0x85, 0xbe, 0x06, 0x53, 0x95, 0xbd, 0xcf, 0x54, 0x3e, 0xbe, 
	0x82, 0x26, 0xb2, 0xbe, 0xf4, 0x1a, 0xc2, 0x3d, 0x27, 0x6f, 0x82, 0xbe, 
	0xa0, 0x2f, 0xce, 0x3c, 0x3b, 0x7c, 0x89, 0xbe, 0xbf, 0xdf, 0xb8, 0x3e, 
	0xc5, 0xf5, 0x1a, 0x3e, 0xc0, 0x5c, 0x7d, 0xbd, 0xbe, 0xac, 0x98, 0xbe, 
	0xee, 0xf7, 0xcc, 0x3d, 0x20, 0xb7, 0x59, 0x3e, 0x21, 0x6b, 0x3a, 0x3e, 
	0x66, 0x0b, 0x15, 0xbe, 0x7d, 0xca, 0xb8, 0x3e, 0x13, 0xfe, 0x41, 0x3e, 
	0xdc, 0xfc, 0x53, 0xbe, 0x56, 0x8f, 0x63, 0xbe, 0x40, 0x54, 0xbf, 0x3c, 
	0xbc, 0x26, 0xd2, 0x3d, 0x41, 0x46, 0x51, 0xbe, 0x33, 0xa9, 0x62, 0xbd, 
	0x8d, 0x20, 0xd1, 0x3e, 0x41, 0x65, 0x2a, 0xbf, 0x34, 0x99, 0xd9, 0x3d, 
	0x12, 0x06, 0x22, 0xbe, 0xe7, 0x2d, 0xdc, 0xbb, 0x5f, 0x43, 0x96, 0x3e, 
	0xe8, 0xbf, 0x83, 0x3d, 0xd8, 0xdc, 0xd1, 0x3e, 0xed, 0x9a, 0xd5, 0x3e, 
	0xfc, 0x05, 0x73, 0xbe, 0xf6, 0xf2, 0xa3, 0xbe, 0xac, 0x4b, 0x85, 0x3d, 
	0x41, 0x15, 0x84, 0x3e, 0xd3, 0x0e, 0xd1, 0x3e, 0x0e, 0xb6, 0x50, 0x3e, 
	0xf5, 0x5e, 0x24, 0x3f, 0x3e, 0xe4, 0x62, 0xbe, 0x06, 0x6f, 0x26, 0x3e, 
	0xfe, 0x8f, 0x24, 0xbe, 0xa2, 0x71, 0x41, 0x3e, 0xd7, 0x5e, 0x08, 0x3e, 
	0x14, 0x32, 0x89, 0x3e, 0x78, 0x8d, 0xa4, 0x3e, 0x95, 0xac, 0xc5, 0xbe, 
	0x1b, 0xcf, 0x8d, 0x3e, 0x4d, 0xeb, 0x89, 0x3e, 0x55, 0x07, 0xa8, 0xbe, 
	0xdc, 0xfe, 0xeb, 0x3d, 0xa0, 0x68, 0x26, 0xbc, 0x7e, 0x60, 0xb8, 0xbe, 
	0x78, 0xa4, 0xc6, 0xbd, 0x5c, 0x87, 0x8d, 0xbe, 0xa0, 0x94, 0xca, 0xbd, 
	0x71, 0x93, 0x60, 0xbd, 0x10, 0xe8, 0x65, 0xbd, 0x92, 0xb0, 0x0b, 0x3e, 
	0x05, 0x6d, 0xa4, 0x3c, 0x0b, 0x6d, 0xd3, 0xbc, 0x46, 0x2c, 0x67, 0xbc, 
	0xdf, 0x9b, 0x4c, 0x3e, 0x6a, 0xb6, 0x79, 0x3e, 0x0d, 0xf9, 0x9f, 0xbe, 
	0xa0, 0xc2, 0x0a, 0x3c, 0x89, 0xd1, 0x81, 0x3e, 0xc2, 0xdc, 0x37, 0x3e, 
	0x04, 0x1a, 0x98, 0xbd, 0x50, 0xfa, 0xd7, 0xbc, 0xd1, 0x18, 0x2c, 0xbe, 
	0x68, 0x28, 0xa6, 0xbe, 0x92, 0xdb, 0xe5, 0x3d, 0x30, 0x53, 0x9a, 0xbc, 
	0xde, 0xae, 0x58, 0x3e, 0x77, 0x35, 0x57, 0x3d, 0xfa, 0xfe, 0x55, 0x3c, 
	0x21, 0xc2, 0xd4, 0xbd, 0x78, 0x83, 0xc6, 0x3e, 0x59, 0x7e, 0x84, 0x3e, 
	0x53, 0x54, 0xf8, 0xbe, 0x2a, 0xef, 0x4d, 0x3e, 0x9a, 0xb4, 0x81, 0xbe, 
	0xdb, 0x5f, 0xb2, 0xbe, 0xbc, 0x18, 0xfe, 0xbd, 0x1c, 0x79, 0xa0, 0xbd, 
	0x40, 0x5e, 0x80, 0xbf, 0xd4, 0x4a, 0x57, 0xbe, 0x5e, 0x0b, 0x33, 0xbf, 
	0xb3, 0x6f, 0xa8, 0x3e, 0x0d, 0x73, 0xc6, 0x3e, 0x92, 0xf0, 0xc0, 0x3e, 
	0x01, 0xf2, 0xdb, 0x3e, 0x8d, 0x12, 0x45, 0xbf, 0x00, 0xec, 0x91, 0xb9, 
	0xaa, 0xb4, 0x3f, 0x3e, 0x7e, 0x70, 0xfd, 0xbc, 0x36, 0x47, 0x8b, 0xbe, 
	0x8f, 0xc0, 0xb3, 0x3e, 0xb0, 0x5a, 0x83, 0xbc, 0x5c, 0x64, 0x8e, 0xbe, 
	0x83, 0x8a, 0xbe, 0x3e, 0x99, 0x66, 0x1b, 0xbf, 0xf2, 0x2d, 0x58, 0x3e, 
	0x6d, 0x01, 0x8b, 0xbe, 0xc0, 0xfa, 0xbc, 0x3c, 0x9c, 0x79, 0xfd, 0xbd, 
	0x4d, 0x55, 0x15, 0xbe, 0xa0, 0x23, 0x02, 0x3d, 0x67, 0x42, 0x16, 0xbf, 
	0x8d, 0xbb, 0xab, 0x3e, 0x56, 0x9b, 0xb1, 0xbe, 0x8e, 0x01, 0xd9, 0xbe, 
	0x18, 0x30, 0x63, 0x3d, 0xc0, 0x87, 0x94, 0x3b, 0xa2, 0x24, 0x62, 0xbe, 
	0x46, 0x44, 0x9a, 0xbe, 0x78, 0x69, 0x99, 0xbe, 0x0b, 0x52, 0x8c, 0xbe, 
	0x4c, 0x7f, 0x81, 0x3d, 0xc6, 0x19, 0x59, 0x3e, 0xf0, 0x4c, 0xf4, 0xbd, 
	0x34, 0x5a, 0x97, 0x3d, 0x40, 0xb9, 0x3d, 0xbc, 0x56, 0xa1, 0xb2, 0xbe, 
	0xb4, 0x41, 0x83, 0xbe, 0xe5, 0xea, 0xc5, 0x3e, 0xd0, 0x28, 0xcd, 0xbe, 
	0x1f, 0x01, 0x8f, 0xbd, 0x9e, 0xcd, 0x8d, 0xbe, 0x49, 0xf3, 0xd5, 0x3e, 
	0xf7, 0xfd, 0x8f, 0x3e, 0x6c, 0x73, 0x13, 0xbe, 0x2c, 0x40, 0x95, 0x3d, 
	0x47, 0x57, 0xc5, 0xbe, 0xd0, 0x58, 0xf2, 0xbd, 0x66, 0x62, 0x3f, 0x3e, 
	0xcb, 0x13, 0xc9, 0x3e, 0xad, 0xb0, 0x49, 0xbe, 0x2f, 0x53, 0xbc, 0xbe, 
	0x54, 0x8f, 0xaf, 0x3d, 0x44, 0x5d, 0xbe, 0xbe, 0xee, 0x60, 0x7d, 0x3e, 
	0x8b, 0x5b, 0xb3, 0xbe, 0x00, 0x9c, 0xa7, 0x3b, 0x27, 0x9b, 0xb0, 0x3e, 
	0x22, 0x91, 0x1a, 0x3e, 0xa0, 0xf5, 0x05, 0xbd, 0xdc, 0xa2, 0xdb, 0x3d, 
	0xb8, 0x12, 0x3e, 0x3d, 0x20, 0x85, 0x83, 0xbc, 0xf8, 0x42, 0xd2, 0xbe, 
	0x80, 0xe9, 0x2f, 0xbb, 0x9e, 0xf6, 0x58, 0x3e, 0xc7, 0xa0, 0x90, 0x3e, 
	0x00, 0x57, 0xc4, 0xbc, 0xe6, 0x32, 0x31, 0xbe, 0x71, 0x8e, 0xdb, 0xbe, 
	0x33, 0x74, 0x88, 0x3e, 0xea, 0xb4, 0x26, 0x3e, 0x03, 0x40, 0xdd, 0xbe, 
	0x84, 0xbe, 0xe1, 0x3d, 0x3d, 0x8f, 0x9f, 0x3e, 0x58, 0xcf, 0x01, 0xbe, 
	0x3d, 0xec, 0x6a, 0xbe, 0x68, 0xb8, 0xaa, 0xbe, 0x6e, 0x33, 0x7b, 0xbe, 
	0x9b, 0x1e, 0xad, 0x3e, 0x3d, 0xb0, 0x2a, 0x3d, 0xbb, 0x5c, 0xc7, 0x3e, 
	0xd2, 0x3d, 0x1f, 0xbe, 0xe3, 0x38, 0xaf, 0xbe, 0xee, 0x06, 0x6d, 0x3e, 
	0xa6, 0xea, 0x8c, 0xbe, 0x8f, 0xf9, 0x8e, 0xbd, 0xfb, 0xd7, 0xca, 0x3e, 
	0x29, 0x45, 0x93, 0x3d, 0x44, 0x4c, 0xc8, 0xbe, 0x10, 0x5e, 0xbb, 0xbe, 
	0xe4, 0x52, 0xaf, 0xbe, 0x38, 0x1c, 0x97, 0xbe, 0x8c, 0xff, 0x9c, 0xbe, 
	0x27, 0x22, 0x98, 0xbd, 0x68, 0xad, 0x5b, 0x3d, 0x7b, 0x6b, 0x3f, 0xbe, 
	0x40, 0x4e, 0xee, 0xbb, 0x8b, 0x71, 0x96, 0xbe, 0x31, 0xa3, 0xa4, 0x3e, 
	0x31, 0x9a, 0x8f, 0xbe, 0x07, 0x89, 0xd4, 0xbe, 0x19, 0x3b, 0xcd, 0x3e, 
	0x7f, 0xea, 0xd3, 0xbe, 0x9a, 0x89, 0x99, 0xbe, 0x4e, 0x35, 0x17, 0xbe, 
	0x48, 0xe4, 0x92, 0xbd, 0x35, 0x59, 0xd8, 0xbe, 0xc0, 0x94, 0x16, 0xbd, 
	0x65, 0x35, 0x54, 0xbe, 0x60, 0xae, 0xc9, 0xbd, 0x48, 0xd3, 0xdd, 0xbd, 
	0xf1, 0x9f, 0x44, 0xbe, 0x6a, 0xcb, 0x53, 0xbe, 0xb6, 0xda, 0xb0, 0xbe, 
	0x60, 0xc8, 0x6a, 0x3c, 0x20, 0xf5, 0xa8, 0xbe, 0xc3, 0x63, 0x80, 0xbe, 
	0x14, 0xe2, 0x92, 0xbe, 0xca, 0xfd, 0xff, 0xff, 0x10, 0x00, 0x00, 0x00, 
	0x06, 0x00, 0x00, 0x00, 0x14, 0x00, 0x00, 0x00, 0x30, 0x00, 0x00, 0x00, 
	0x02, 0x00, 0x00, 0x00, 0x10, 0x00, 0x00, 0x00, 0x10, 0x00, 0x00, 0x00, 
	0x19, 0x00, 0x00, 0x00, 0x73, 0x65, 0x71, 0x75, 0x65, 0x6e, 0x74, 0x69, 
	0x61, 0x6c, 0x2f, 0x64, 0x65, 0x6e, 0x73, 0x65, 0x5f, 0x31, 0x2f, 0x4d, 
	0x61, 0x74, 0x4d, 0x75, 0x6c, 0x00, 0x00, 0x00, 0x4c, 0xfd, 0xff, 0xff, 
	0x62, 0xfe, 0xff, 0xff, 0x04, 0x00, 0x00, 0x00, 0x40, 0x00, 0x00, 0x00, 
	0xae, 0x6b, 0x0e, 0xbf, 0x9a, 0x47, 0x05, 0x3e, 0x57, 0xf7, 0x00, 0xbf, 
	0xe0, 0xbb, 0x47, 0xbd, 0xc3, 0xe0, 0x13, 0xbf, 0xfe, 0x17, 0xd6, 0xbe, 
	0xfe, 0x10, 0x97, 0xbe, 0x4d, 0x26, 0x8f, 0x3e, 0x14, 0x99, 0xb1, 0xbe, 
	0x65, 0xc6, 0xa2, 0x3e, 0x22, 0x6c, 0xb0, 0xbe, 0x50, 0x37, 0xb0, 0xbd, 
	0x14, 0xb2, 0x1c, 0x3f, 0xd8, 0xef, 0x65, 0x3e, 0x00, 0xeb, 0xda, 0x3e, 
	0x04, 0xa4, 0x51, 0x3a, 0x5a, 0xfe, 0xff, 0xff, 0x10, 0x00, 0x00, 0x00, 
	0x05, 0x00, 0x00, 0x00, 0x14, 0x00, 0x00, 0x00, 0x2c, 0x00, 0x00, 0x00, 
	0x02, 0x00, 0x00, 0x00, 0x10, 0x00, 0x00, 0x00, 0x01, 0x00, 0x00, 0x00, 
	0x17, 0x00, 0x00, 0x00, 0x73, 0x65, 0x71, 0x75, 0x65, 0x6e, 0x74, 0x69, 
	0x61, 0x6c, 0x2f, 0x64, 0x65, 0x6e, 0x73, 0x65, 0x2f, 0x4d, 0x61, 0x74, 
	0x4d, 0x75, 0x6c, 0x00, 0xd8, 0xfd, 0xff, 0xff, 0xee, 0xfe, 0xff, 0xff, 
	0x04, 0x00, 0x00, 0x00, 0x04, 0x00, 0x00, 0x00, 0x1b, 0xc8, 0x12, 0xbf, 
	0xaa, 0xfe, 0xff, 0xff, 0x10, 0x00, 0x00, 0x00, 0x04, 0x00, 0x00, 0x00, 
	0x10, 0x00, 0x00, 0x00, 0x44, 0x00, 0x00, 0x00, 0x01, 0x00, 0x00, 0x00, 
	0x01, 0x00, 0x00, 0x00, 0x32, 0x00, 0x00, 0x00, 0x73, 0x65, 0x71, 0x75, 
	0x65, 0x6e, 0x74, 0x69, 0x61, 0x6c, 0x2f, 0x64, 0x65, 0x6e, 0x73, 0x65, 
	0x5f, 0x32, 0x2f, 0x42, 0x69, 0x61, 0x73, 0x41, 0x64, 0x64, 0x2f, 0x52, 
	0x65, 0x61, 0x64, 0x56, 0x61, 0x72, 0x69, 0x61, 0x62, 0x6c, 0x65, 0x4f, 
	0x70, 0x2f, 0x72, 0x65, 0x73, 0x6f, 0x75, 0x72, 0x63, 0x65, 0x00, 0x00, 
	0x40, 0xfe, 0xff, 0xff, 0x56, 0xff, 0xff, 0xff, 0x04, 0x00, 0x00, 0x00, 
	0x40, 0x00, 0x00, 0x00, 0x00, 0x00, 0x00, 0x00, 0x00, 0x00, 0x00, 0x00, 
	0xca, 0xc4, 0x3f, 0xbf, 0xb2, 0x3a, 0xd0, 0x3e, 0x30, 0x9a, 0x07, 0x3f, 
	0x0e, 0xe9, 0x23, 0xbf, 0x90, 0xbe, 0x1d, 0x3f, 0x46, 0x6f, 0x03, 0x3f, 
	0xd4, 0xfe, 0x30, 0x3f, 0x49, 0xde, 0xbb, 0x3e, 0x00, 0x00, 0x00, 0x00, 
	0xf8, 0x56, 0x6d, 0x3e, 0x00, 0x00, 0x00, 0x00, 0x42, 0xe2, 0x92, 0x3e, 
	0xcd, 0x35, 0x09, 0x3f, 0x00, 0x00, 0x00, 0x00, 0x4e, 0xff, 0xff, 0xff, 
	0x10, 0x00, 0x00, 0x00, 0x03, 0x00, 0x00, 0x00, 0x10, 0x00, 0x00, 0x00, 
	0x48, 0x00, 0x00, 0x00, 0x01, 0x00, 0x00, 0x00, 0x10, 0x00, 0x00, 0x00, 
	0x32, 0x00, 0x00, 0x00, 0x73, 0x65, 0x71, 0x75, 0x65, 0x6e, 0x74, 0x69, 
	0x61, 0x6c, 0x2f, 0x64, 0x65, 0x6e, 0x73, 0x65, 0x5f, 0x31, 0x2f, 0x42, 
	0x69, 0x61, 0x73, 0x41, 0x64, 0x64, 0x2f, 0x52, 0x65, 0x61, 0x64, 0x56, 
	0x61, 0x72, 0x69, 0x61, 0x62, 0x6c, 0x65, 0x4f, 0x70, 0x2f, 0x72, 0x65, 
	0x73, 0x6f, 0x75, 0x72, 0x63, 0x65, 0x00, 0x00, 0x04, 0x00, 0x06, 0x00, 
	0x04, 0x00, 0x00, 0x00, 0x00, 0x00, 0x06, 0x00, 0x08, 0x00, 0x04, 0x00, 
	0x06, 0x00, 0x00, 0x00, 0x04, 0x00, 0x00, 0x00, 0x40, 0x00, 0x00, 0x00, 
	0x00, 0x00, 0x00, 0x00, 0xfd, 0x37, 0x9a, 0xbd, 0x00, 0x00, 0x00, 0x00, 
	0x00, 0x00, 0x00, 0x00, 0x00, 0x00, 0x00, 0x00, 0x00, 0x00, 0x00, 0x00, 
	0x00, 0x00, 0x00, 0x00, 0x92, 0xeb, 0x2d, 0xbf, 0x00, 0x00, 0x00, 0x00, 
	0x4f, 0x86, 0x25, 0xbf, 0x00, 0x00, 0x00, 0x00, 0x00, 0x00, 0x00, 0x00, 
	0x16, 0xf6, 0xc8, 0x3e, 0xc9, 0x34, 0xc0, 0x3e, 0x90, 0xce, 0x10, 0xbf, 
	0xf9, 0x6e, 0xff, 0xbb, 0x00, 0x00, 0x0e, 0x00, 0x14, 0x00, 0x04, 0x00, 
	0x00, 0x00, 0x08, 0x00, 0x0c, 0x00, 0x10, 0x00, 0x0e, 0x00, 0x00, 0x00, 
	0x10, 0x00, 0x00, 0x00, 0x02, 0x00, 0x00, 0x00, 0x10, 0x00, 0x00, 0x00, 
	0x44, 0x00, 0x00, 0x00, 0x01, 0x00, 0x00, 0x00, 0x10, 0x00, 0x00, 0x00, 
	0x30, 0x00, 0x00, 0x00, 0x73, 0x65, 0x71, 0x75, 0x65, 0x6e, 0x74, 0x69, 
	0x61, 0x6c, 0x2f, 0x64, 0x65, 0x6e, 0x73, 0x65, 0x2f, 0x42, 0x69, 0x61, 
	0x73, 0x41, 0x64, 0x64, 0x2f, 0x52, 0x65, 0x61, 0x64, 0x56, 0x61, 0x72, 
	0x69, 0x61, 0x62, 0x6c, 0x65, 0x4f, 0x70, 0x2f, 0x72, 0x65, 0x73, 0x6f, 
	0x75, 0x72, 0x63, 0x65, 0x00, 0x00, 0x00, 0x00, 0xa4, 0xff, 0xff, 0xff, 
	0x14, 0x00, 0x18, 0x00, 0x04, 0x00, 0x00, 0x00, 0x08, 0x00, 0x0c, 0x00, 
	0x10, 0x00, 0x00, 0x00, 0x00, 0x00, 0x14, 0x00, 0x14, 0x00, 0x00, 0x00, 
	0x14, 0x00, 0x00, 0x00, 0x01, 0x00, 0x00, 0x00, 0x18, 0x00, 0x00, 0x00, 
	0x30, 0x00, 0x00, 0x00, 0x20, 0x00, 0x00, 0x00, 0x02, 0x00, 0x00, 0x00, 
	0x01, 0x00, 0x00, 0x00, 0x01, 0x00, 0x00, 0x00, 0x0b, 0x00, 0x00, 0x00, 
	0x64, 0x65, 0x6e, 0x73, 0x65, 0x5f, 0x69, 0x6e, 0x70, 0x75, 0x74, 0x00, 
	0x02, 0x00, 0x00, 0x00, 0xff, 0xff, 0xff, 0xff, 0x01, 0x00, 0x00, 0x00, 
	0xfc, 0xff, 0xff, 0xff, 0x04, 0x00, 0x04, 0x00, 0x04, 0x00, 0x00, 0x00
};
const int model_data_len = 2856;