#ifdef __has_attribute
#define HAVE_ATTRIBUTE(x) __has_attribute(x)
#else
#define HAVE_ATTRIBUTE(x) 0
#endif
#if HAVE_ATTRIBUTE(aligned) || (defined(__GNUC__) && !defined(__clang__))
#define DATA_ALIGN_ATTRIBUTE __attribute__((aligned(4)))
#else
#define DATA_ALIGN_ATTRIBUTE
#endif

const unsigned char digits_model[] DATA_ALIGN_ATTRIBUTE = {
	0x1c, 0x00, 0x00, 0x00, 0x54, 0x46, 0x4c, 0x33, 0x14, 0x00, 0x20, 0x00, 
	0x04, 0x00, 0x08, 0x00, 0x0c, 0x00, 0x10, 0x00, 0x14, 0x00, 0x00, 0x00, 
	0x18, 0x00, 0x1c, 0x00, 0x14, 0x00, 0x00, 0x00, 0x03, 0x00, 0x00, 0x00, 
	0x18, 0x00, 0x00, 0x00, 0x24, 0x00, 0x00, 0x00, 0xac, 0x00, 0x00, 0x00, 
	0x24, 0x00, 0x00, 0x00, 0x54, 0x00, 0x00, 0x00, 0x4c, 0x00, 0x00, 0x00, 
	0x03, 0x00, 0x00, 0x00, 0xb4, 0x02, 0x00, 0x00, 0xe8, 0x01, 0x00, 0x00, 
	0x60, 0x01, 0x00, 0x00, 0x01, 0x00, 0x00, 0x00, 0xac, 0x00, 0x00, 0x00, 
	0x0b, 0x00, 0x00, 0x00, 0x38, 0x34, 0x00, 0x00, 0x34, 0x34, 0x00, 0x00, 
	0x2c, 0x33, 0x00, 0x00, 0x90, 0x32, 0x00, 0x00, 0x24, 0x32, 0x00, 0x00, 
	0xd4, 0x04, 0x00, 0x00, 0x58, 0x03, 0x00, 0x00, 0x1c, 0x34, 0x00, 0x00, 
	0x18, 0x34, 0x00, 0x00, 0x14, 0x34, 0x00, 0x00, 0x3c, 0x00, 0x00, 0x00, 
	0x00, 0x00, 0x00, 0x00, 0x01, 0x00, 0x00, 0x00, 0x0c, 0x00, 0x00, 0x00, 
	0x08, 0x00, 0x0c, 0x00, 0x04, 0x00, 0x08, 0x00, 0x08, 0x00, 0x00, 0x00, 
	0x08, 0x00, 0x00, 0x00, 0x0a, 0x00, 0x00, 0x00, 0x13, 0x00, 0x00, 0x00, 
	0x6d, 0x69, 0x6e, 0x5f, 0x72, 0x75, 0x6e, 0x74, 0x69, 0x6d, 0x65, 0x5f, 
	0x76, 0x65, 0x72, 0x73, 0x69, 0x6f, 0x6e, 0x00, 0x36, 0xcd, 0xff, 0xff, 
	0x04, 0x00, 0x00, 0x00, 0x10, 0x00, 0x00, 0x00, 0x31, 0x2e, 0x35, 0x2e, 
	0x30, 0x00, 0x00, 0x00, 0x00, 0x00, 0x00, 0x00, 0x00, 0x00, 0x00, 0x00, 
	0x0f, 0x00, 0x00, 0x00, 0x4d, 0x4c, 0x49, 0x52, 0x20, 0x43, 0x6f, 0x6e, 
	0x76, 0x65, 0x72, 0x74, 0x65, 0x64, 0x2e, 0x00, 0x00, 0x00, 0x0e, 0x00, 
	0x18, 0x00, 0x04, 0x00, 0x08, 0x00, 0x0c, 0x00, 0x10, 0x00, 0x14, 0x00, 
	0x0e, 0x00, 0x00, 0x00, 0x14, 0x00, 0x00, 0x00, 0x38, 0x00, 0x00, 0x00, 
	0x3c, 0x00, 0x00, 0x00, 0x40, 0x00, 0x00, 0x00, 0x4c, 0x00, 0x00, 0x00, 
	0x09, 0x00, 0x00, 0x00, 0x1c, 0x33, 0x00, 0x00, 0xac, 0x32, 0x00, 0x00, 
	0x08, 0x32, 0x00, 0x00, 0x8c, 0x31, 0x00, 0x00, 0x24, 0x31, 0x00, 0x00, 
	0xc8, 0x03, 0x00, 0x00, 0xd4, 0x01, 0x00, 0x00, 0x08, 0x01, 0x00, 0x00, 
	0x80, 0x00, 0x00, 0x00, 0x01, 0x00, 0x00, 0x00, 0x00, 0x00, 0x00, 0x00, 
	0x01, 0x00, 0x00, 0x00, 0x08, 0x00, 0x00, 0x00, 0x03, 0x00, 0x00, 0x00, 
	0x50, 0x01, 0x00, 0x00, 0xb4, 0x00, 0x00, 0x00, 0x1c, 0x00, 0x00, 0x00, 
	0x04, 0x00, 0x00, 0x00, 0x6d, 0x61, 0x69, 0x6e, 0x00, 0x00, 0x0e, 0x00, 
	0x18, 0x00, 0x08, 0x00, 0x0c, 0x00, 0x10, 0x00, 0x07, 0x00, 0x14, 0x00, 
	0x0e, 0x00, 0x00, 0x00, 0x00, 0x00, 0x00, 0x08, 0x02, 0x00, 0x00, 0x00, 
	0x18, 0x00, 0x00, 0x00, 0x0c, 0x00, 0x00, 0x00, 0x04, 0x00, 0x00, 0x00, 
	0x00, 0xcd, 0xff, 0xff, 0x01, 0x00, 0x00, 0x00, 0x08, 0x00, 0x00, 0x00, 
	0x03, 0x00, 0x00, 0x00, 0x07, 0x00, 0x00, 0x00, 0x04, 0x00, 0x00, 0x00, 
	0x02, 0x00, 0x00, 0x00, 0xc0, 0xfe, 0xff, 0xff, 0x09, 0x00, 0x00, 0x00, 
	0x00, 0x00, 0x00, 0x09, 0x01, 0x00, 0x00, 0x00, 0x98, 0xcd, 0xff, 0xff, 
	0x14, 0x00, 0x00, 0x00, 0x09, 0x00, 0x00, 0x00, 0x18, 0x00, 0x00, 0x00, 
	0x30, 0x00, 0x00, 0x00, 0x20, 0x00, 0x00, 0x00, 0x02, 0x00, 0x00, 0x00, 
	0x01, 0x00, 0x00, 0x00, 0x0a, 0x00, 0x00, 0x00, 0x08, 0x00, 0x00, 0x00, 
	0x49, 0x64, 0x65, 0x6e, 0x74, 0x69, 0x74, 0x79, 0x00, 0x00, 0x00, 0x00, 
	0x02, 0x00, 0x00, 0x00, 0xff, 0xff, 0xff, 0xff, 0x0a, 0x00, 0x00, 0x00, 
	0x7c, 0xce, 0xff, 0xff, 0x00, 0x00, 0x0a, 0x00, 0x10, 0x00, 0x04, 0x00, 
	0x08, 0x00, 0x0c, 0x00, 0x0a, 0x00, 0x00, 0x00, 0x01, 0x00, 0x00, 0x00, 
	0x10, 0x00, 0x00, 0x00, 0x04, 0x00, 0x00, 0x00, 0x01, 0x00, 0x00, 0x00, 
	0x07, 0x00, 0x00, 0x00, 0x02, 0x00, 0x00, 0x00, 0x06, 0x00, 0x00, 0x00, 
	0x03, 0x00, 0x00, 0x00, 0x44, 0xff, 0xff, 0xff, 0x16, 0x00, 0x00, 0x00, 
	0x00, 0x00, 0x00, 0x16, 0x01, 0x00, 0x00, 0x00, 0x1c, 0xce, 0xff, 0xff, 
	0x14, 0x00, 0x00, 0x00, 0x08, 0x00, 0x00, 0x00, 0x18, 0x00, 0x00, 0x00, 
	0x40, 0x00, 0x00, 0x00, 0x30, 0x00, 0x00, 0x00, 0x02, 0x00, 0x00, 0x00, 
	0x01, 0x00, 0x00, 0x00, 0x20, 0x01, 0x00, 0x00, 0x1a, 0x00, 0x00, 0x00, 
	0x73, 0x65, 0x71, 0x75, 0x65, 0x6e, 0x74, 0x69, 0x61, 0x6c, 0x2f, 0x66, 
	0x6c, 0x61, 0x74, 0x74, 0x65, 0x6e, 0x2f, 0x52, 0x65, 0x73, 0x68, 0x61, 
	0x70, 0x65, 0x00, 0x00, 0x02, 0x00, 0x00, 0x00, 0xff, 0xff, 0xff, 0xff, 
	0x20, 0x01, 0x00, 0x00, 0x10, 0xcf, 0xff, 0xff, 0x00, 0x00, 0x0e, 0x00, 
	0x14, 0x00, 0x00, 0x00, 0x08, 0x00, 0x0c, 0x00, 0x07, 0x00, 0x10, 0x00, 
	0x0e, 0x00, 0x00, 0x00, 0x00, 0x00, 0x00, 0x01, 0x30, 0x00, 0x00, 0x00, 
	0x24, 0x00, 0x00, 0x00, 0x10, 0x00, 0x00, 0x00, 0x0c, 0x00, 0x10, 0x00, 
	0x0e, 0x00, 0x04, 0x00, 0x08, 0x00, 0x0f, 0x00, 0x0c, 0x00, 0x00, 0x00, 
	0x01, 0x00, 0x00, 0x00, 0x01, 0x00, 0x00, 0x00, 0x00, 0x00, 0x01, 0x01, 
	0x01, 0x00, 0x00, 0x00, 0x06, 0x00, 0x00, 0x00, 0x03, 0x00, 0x00, 0x00, 
	0x00, 0x00, 0x00, 0x00, 0x05, 0x00, 0x00, 0x00, 0x01, 0x00, 0x00, 0x00, 
	0x0c, 0x00, 0x10, 0x00, 0x0b, 0x00, 0x00, 0x00, 0x0c, 0x00, 0x04, 0x00, 
	0x0c, 0x00, 0x00, 0x00, 0x03, 0x00, 0x00, 0x00, 0x00, 0x00, 0x00, 0x03, 
	0x01, 0x00, 0x00, 0x00, 0xe4, 0xce, 0xff, 0xff, 0x14, 0x00, 0x00, 0x00, 
	0x07, 0x00, 0x00, 0x00, 0x20, 0x00, 0x00, 0x00, 0xb0, 0x00, 0x00, 0x00, 
	0x98, 0x00, 0x00, 0x00, 0x04, 0x00, 0x00, 0x00, 0x01, 0x00, 0x00, 0x00, 
	0x06, 0x00, 0x00, 0x00, 0x06, 0x00, 0x00, 0x00, 0x08, 0x00, 0x00, 0x00, 
	0x7b, 0x00, 0x00, 0x00, 0x73, 0x65, 0x71, 0x75, 0x65, 0x6e, 0x74, 0x69, 
	0x61, 0x6c, 0x2f, 0x63, 0x6f, 0x6e, 0x76, 0x32, 0x64, 0x2f, 0x52, 0x65, 
	0x6c, 0x75, 0x3b, 0x73, 0x65, 0x71, 0x75, 0x65, 0x6e, 0x74, 0x69, 0x61, 
	0x6c, 0x2f, 0x63, 0x6f, 0x6e, 0x76, 0x32, 0x64, 0x2f, 0x42, 0x69, 0x61, 
	0x73, 0x41, 0x64, 0x64, 0x3b, 0x73, 0x65, 0x71, 0x75, 0x65, 0x6e, 0x74, 
	0x69, 0x61, 0x6c, 0x2f, 0x63, 0x6f, 0x6e, 0x76, 0x32, 0x64, 0x2f, 0x43, 
	0x6f, 0x6e, 0x76, 0x32, 0x44, 0x3b, 0x73, 0x65, 0x71, 0x75, 0x65, 0x6e, 
	0x74, 0x69, 0x61, 0x6c, 0x2f, 0x63, 0x6f, 0x6e, 0x76, 0x32, 0x64, 0x2f, 
	0x42, 0x69, 0x61, 0x73, 0x41, 0x64, 0x64, 0x2f, 0x52, 0x65, 0x61, 0x64, 
	0x56, 0x61, 0x72, 0x69, 0x61, 0x62, 0x6c, 0x65, 0x4f, 0x70, 0x2f, 0x72, 
	0x65, 0x73, 0x6f, 0x75, 0x72, 0x63, 0x65, 0x00, 0x04, 0x00, 0x00, 0x00, 
	0xff, 0xff, 0xff, 0xff, 0x06, 0x00, 0x00, 0x00, 0x06, 0x00, 0x00, 0x00, 
	0x08, 0x00, 0x00, 0x00, 0x38, 0xcf, 0xff, 0xff, 0x42, 0xd0, 0xff, 0xff, 
	0x04, 0x00, 0x00, 0x00, 0x20, 0x01, 0x00, 0x00, 0xba, 0xf8, 0xa8, 0xbd, 
	0x6e, 0x14, 0x05, 0xbf, 0x68, 0xb8, 0x66, 0xbf, 0xef, 0x47, 0x33, 0x3f, 
	0xd0, 0x0e, 0x0c, 0x3e, 0xba, 0xef, 0xe2, 0xbd, 0x21, 0x02, 0x6a, 0x3e, 
	0x3c, 0xb0, 0x6f, 0x3f, 0xc4, 0xba, 0x48, 0x3f, 0x35, 0x89, 0xee, 0x3e, 
	0x85, 0xb3, 0x1a, 0x3f, 0x61, 0x22, 0xc7, 0xbc, 0xc3, 0x52, 0xc5, 0xbc, 
	0x58, 0xa8, 0x03, 0xbf, 0x9c, 0xaf, 0xc1, 0xbe, 0x47, 0x20, 0x17, 0x3f, 
	0x39, 0x20, 0x36, 0xbf, 0x36, 0xa3, 0x5b, 0x3d, 0xd1, 0xfa, 0xe2, 0x3e, 
	0xd6, 0xe7, 0x26, 0x3f, 0x5a, 0x0a, 0x5b, 0x3e, 0x4d, 0xbf, 0xed, 0x3d, 
	0xb9, 0x0a, 0x48, 0x3f, 0xb6, 0x0a, 0xab, 0xbe, 0xe0, 0x3d, 0x6a, 0xbe, 
	0x64, 0xfd, 0xd0, 0x3e, 0x3d, 0xe0, 0xaa, 0x3e, 0x16, 0x82, 0xf4, 0x3e, 
	0x85, 0xb6, 0xaa, 0x3e, 0x9b, 0x93, 0x5c, 0x3f, 0x5d, 0xac, 0x12, 0x3f, 
	0xec, 0x9d, 0xbf, 0x3e, 0xd1, 0xfd, 0x98, 0x3e, 0xcf, 0x35, 0x70, 0x3d, 
	0xa7, 0xad, 0x5b, 0xbf, 0xd2, 0x1e, 0x6f, 0xbf, 0xfb, 0xe0, 0xbc, 0xbe, 
	0xe9, 0x56, 0xef, 0x3d, 0x48, 0x64, 0x7a, 0x3e, 0x91, 0xd6, 0x9e, 0x3d, 
	0xe2, 0x29, 0x3b, 0x3f, 0xbb, 0x56, 0x11, 0x3f, 0x50, 0x9d, 0xd6, 0x3e, 
	0x48, 0xd5, 0x4d, 0x3f, 0x0b, 0x7b, 0x81, 0xbe, 0x87, 0xe2, 0x60, 0x3e, 
	0xa4, 0xab, 0xf1, 0x3e, 0x1b, 0x04, 0x34, 0xbf, 0x0a, 0xd8, 0x86, 0xbe, 
	0x13, 0x2f, 0x9d, 0x3f, 0x90, 0xe3, 0xe5, 0x3e, 0x65, 0x8f, 0x4c, 0xbf, 
	0x4f, 0x91, 0xa9, 0x3e, 0x0e, 0x6b, 0x77, 0x3e, 0xb6, 0x6b, 0x03, 0xbe, 
	0xf6, 0x70, 0xc0, 0x3e, 0x15, 0x5d, 0x00, 0x3f, 0x03, 0x5b, 0xff, 0xbd, 
	0x32, 0x46, 0x48, 0x3f, 0x70, 0xf8, 0x14, 0x3f, 0x86, 0xa4, 0x26, 0x3f, 
	0x2a, 0x2a, 0x17, 0x3f, 0xef, 0xfe, 0xdb, 0xbe, 0x71, 0x55, 0x42, 0x3d, 
	0xae, 0xab, 0xe6, 0x3e, 0xe2, 0xed, 0xfe, 0x3c, 0x98, 0xa8, 0x84, 0x3e, 
	0x3a, 0x18, 0x2c, 0x3f, 0x3d, 0xf3, 0x1a, 0x3f, 0x8d, 0xef, 0x04, 0xbf, 
	0x96, 0xb4, 0x09, 0xbe, 0x7c, 0xac, 0x01, 0x3f, 0x3a, 0xd1, 0xff, 0xff, 
	0x10, 0x00, 0x00, 0x00, 0x06, 0x00, 0x00, 0x00, 0x1c, 0x00, 0x00, 0x00, 
	0x38, 0x00, 0x00, 0x00, 0x04, 0x00, 0x00, 0x00, 0x08, 0x00, 0x00, 0x00, 
	0x03, 0x00, 0x00, 0x00, 0x03, 0x00, 0x00, 0x00, 0x01, 0x00, 0x00, 0x00, 
	0x18, 0x00, 0x00, 0x00, 0x73, 0x65, 0x71, 0x75, 0x65, 0x6e, 0x74, 0x69, 
	0x61, 0x6c, 0x2f, 0x63, 0x6f, 0x6e, 0x76, 0x32, 0x64, 0x2f, 0x43, 0x6f, 
	0x6e, 0x76, 0x32, 0x44, 0x00, 0x00, 0x00, 0x00, 0xb0, 0xd0, 0xff, 0xff, 
	0xba, 0xd1, 0xff, 0xff, 0x04, 0x00, 0x00, 0x00, 0x00, 0x2d, 0x00, 0x00, 
	0x2e, 0x31, 0x6e, 0x3c, 0x22, 0x1c, 0x14, 0xbe, 0xdc, 0xe7, 0x0e, 0xbd, 
	0xda, 0x27, 0x45, 0xbe, 0xe8, 0x79, 0x7b, 0xbe, 0x59, 0xee, 0x57, 0xbe, 
	0x69, 0xae, 0x62, 0xbe, 0xee, 0xc1, 0xb2, 0x3d, 0x21, 0xd0, 0x7a, 0xbe, 
	0xdd, 0xa5, 0x69, 0xbe, 0xa5, 0xd7, 0xe4, 0xbd, 0xc1, 0x74, 0x99, 0xbe, 
	0x9d, 0xdb, 0x13, 0x3e, 0xa3, 0x12, 0x7d, 0x3c, 0xb0, 0x4a, 0x5c, 0xbc, 
	0x23, 0x67, 0x4d, 0x3c, 0xb0, 0x35, 0xe6, 0xbd, 0x81, 0x4b, 0x0c, 0x3d, 
	0xf2, 0x4c, 0xf9, 0xbd, 0x71, 0xb8, 0x09, 0x3e, 0x9e, 0xc7, 0x2f, 0x3e, 
	0xc5, 0x7e, 0x33, 0xb9, 0xca, 0x87, 0x6f, 0xbc, 0xdc, 0x6c, 0xe7, 0x3d, 
	0x1e, 0x9a, 0xc0, 0x3a, 0xe3, 0x72, 0x39, 0xbc, 0x7c, 0x1a, 0xe6, 0xbc, 
	0x81, 0x39, 0x76, 0xbb, 0xb0, 0xd7, 0x9f, 0xbd, 0xe1, 0x24, 0x69, 0x3d, 
	0xb2, 0xed, 0x6c, 0x3c, 0x73, 0x6f, 0x61, 0x3e, 0xb0, 0xd4, 0x8d, 0x3e, 
	0xac, 0x0a, 0x99, 0xbe, 0xc7, 0x47, 0x2e, 0x3e, 0x93, 0xcf, 0x00, 0xbe, 
	0x4a, 0x40, 0xd1, 0x3d, 0xee, 0xb1, 0x02, 0x3e, 0x43, 0x5f, 0x4f, 0xbe, 
	0x95, 0xcf, 0x59, 0x3e, 0x0e, 0x81, 0x89, 0x3e, 0x5e, 0x9a, 0x2a, 0xbe, 
	0xe2, 0x75, 0xa2, 0xbe, 0xc5, 0xb8, 0x74, 0xbe, 0x30, 0xe4, 0x05, 0x3e, 
	0x58, 0x10, 0xd7, 0xbe, 0x11, 0xbd, 0x06, 0xbe, 0x89, 0x5e, 0x8e, 0xbe, 
	0x81, 0xc6, 0xaf, 0x3d, 0xfb, 0x29, 0x1c, 0xbf, 0x25, 0xe7, 0xc9, 0x3d, 
	0x5b, 0xe6, 0x22, 0xbe, 0xf2, 0x24, 0x1d, 0x3d, 0x25, 0xf1, 0x89, 0xbd, 
	0x06, 0x6f, 0xcf, 0x3c, 0xff, 0x39, 0xc4, 0x3d, 0x3d, 0xbe, 0xd7, 0xbd, 
	0x01, 0xc0, 0x89, 0xbe, 0x41, 0x73, 0xf7, 0x3c, 0x8c, 0x9b, 0x82, 0xbd, 
	0xb9, 0x5a, 0x61, 0x3d, 0x7d, 0x9f, 0xe3, 0xbc, 0xfc, 0xa3, 0x46, 0x3d, 
	0x40, 0xe2, 0xcf, 0xbd, 0x03, 0x13, 0xe8, 0xbe, 0xea, 0x37, 0x81, 0x3e, 
	0x8f, 0x90, 0xf3, 0xbd, 0xc6, 0x43, 0x85, 0x3e, 0x83, 0x33, 0xd2, 0xbd, 
	0x60, 0xa6, 0xe0, 0xbe, 0x48, 0x6c, 0xda, 0xbd, 0xd5, 0x23, 0x91, 0xbe, 
	0xf2, 0x35, 0x00, 0xbf, 0x1a, 0x52, 0xdc, 0x3d, 0xa1, 0x9e, 0x50, 0xbe, 
	0x3e, 0x72, 0x4d, 0x3e, 0x2a, 0x83, 0x64, 0xbe, 0x09, 0xb3, 0x78, 0xbe, 
	0x44, 0x14, 0x96, 0xbe, 0xe7, 0x32, 0x0e, 0x3e, 0x65, 0x74, 0x86, 0xbe, 
	0x5e, 0xe3, 0xa0, 0xbe, 0xa7, 0x08, 0x95, 0x3d, 0x9e, 0xa5, 0xc4, 0xbe, 
	0xb5, 0x00, 0xad, 0xbd, 0xf5, 0x3d, 0xf1, 0x3e, 0xf3, 0xd0, 0x6a, 0xbd, 
	0x44, 0x71, 0xa7, 0x3e, 0xb9, 0xf0, 0xc5, 0x3d, 0xd6, 0x16, 0x86, 0xbe, 
	0x97, 0xee, 0x9a, 0x3c, 0x75, 0x4f, 0xd4, 0xbb, 0xcf, 0x5c, 0x43, 0x3e, 
	0x15, 0x9b, 0xa9, 0xbd, 0xfe, 0x17, 0x95, 0xbc, 0x88, 0xa3, 0xb0, 0xbd, 
	0xa9, 0x9c, 0x44, 0xbe, 0xa0, 0xd6, 0x1c, 0xbf, 0x3a, 0x55, 0x1e, 0x3e, 
	0x18, 0x5d, 0xc7, 0xbd, 0x51, 0x86, 0xe8, 0x3d, 0xdd, 0x09, 0x50, 0x3d, 
	0x41, 0xbd, 0xb1, 0x3d, 0xad, 0xf6, 0x65, 0xbd, 0x5d, 0xb6, 0x21, 0xbe, 
	0x36, 0xd7, 0xad, 0x3c, 0xd8, 0x9d, 0x0c, 0x3e, 0x21, 0xa6, 0xb9, 0x3d, 
	0x5b, 0xf2, 0xba, 0x3c, 0xda, 0xcb, 0x0c, 0xbe, 0x07, 0x24, 0x46, 0x3d, 
	0xef, 0xad, 0x80, 0xbe, 0x1d, 0xac, 0xd2, 0xbd, 0x2e, 0x52, 0x96, 0x3e, 
	0x8d, 0xd7, 0x93, 0xbe, 0x83, 0x64, 0x42, 0x3d, 0x8b, 0xf2, 0xad, 0xbe, 
	0x9b, 0x0d, 0x4b, 0xbf, 0x7b, 0x76, 0xa8, 0xbe, 0x04, 0x94, 0x02, 0xbf, 
	0xf8, 0x4e, 0xc9, 0xbe, 0xc3, 0x12, 0xe1, 0x3d, 0x2e, 0x58, 0x75, 0xbe, 
	0xcd, 0xd4, 0xb6, 0x3c, 0x1d, 0xdd, 0xcc, 0xbe, 0x1c, 0xa8, 0x2c, 0xbf, 
	0xf5, 0xaa, 0x2a, 0xbe, 0x35, 0x72, 0x88, 0xbe, 0x01, 0x91, 0xea, 0xbe, 
	0x58, 0x39, 0xd6, 0xbe, 0x64, 0xa9, 0xbb, 0xbd, 0x4a, 0x71, 0x0e, 0xbf, 
	0xfe, 0xbc, 0xdd, 0x3d, 0x97, 0x35, 0xaf, 0x3e, 0x63, 0x05, 0x60, 0xbc, 
	0xf2, 0x6f, 0x7f, 0x3e, 0x59, 0x96, 0x03, 0x3e, 0x9a, 0xac, 0x5d, 0xbe, 
	0x39, 0x80, 0x40, 0x3e, 0x55, 0xc4, 0x32, 0xbe, 0xf6, 0x9b, 0x86, 0x3e, 
	0x80, 0xd7, 0xb5, 0x3e, 0x21, 0x24, 0x51, 0x3e, 0x37, 0xab, 0x2a, 0x3d, 
	0x68, 0x39, 0x2c, 0xbf, 0xcf, 0x27, 0xe3, 0xbe, 0x3e, 0xa7, 0x94, 0x3e, 
	0x86, 0x29, 0x9a, 0xbd, 0xa0, 0x91, 0x16, 0x3e, 0x6d, 0x57, 0xce, 0x3b, 
	0x75, 0x6e, 0x0b, 0x3d, 0xbe, 0x76, 0x7b, 0x3e, 0x8c, 0x76, 0xa6, 0x3e, 
	0xa5, 0x30, 0x48, 0xbe, 0x1c, 0x99, 0x79, 0x3e, 0x2e, 0x93, 0x78, 0xbe, 
	0xc4, 0xee, 0x74, 0x3c, 0xa5, 0x0a, 0x26, 0x3b, 0xa3, 0x6c, 0xa0, 0xbc, 
	0x7c, 0x71, 0xae, 0xbd, 0x52, 0xea, 0xbb, 0x3e, 0x90, 0xb8, 0xa8, 0x3e, 
	0xa3, 0x8a, 0x02, 0xbe, 0xf0, 0x1a, 0xcf, 0x3d, 0xe4, 0xe2, 0xb0, 0xbe, 
	0x77, 0xd6, 0x6d, 0xbf, 0xa5, 0xeb, 0xc7, 0xbd, 0xf8, 0xa4, 0xaa, 0xbe, 
	0x3f, 0x39, 0xb9, 0xbe, 0x08, 0xb5, 0x93, 0xbe, 0xae, 0xfb, 0x79, 0xbe, 
	0xd9, 0x15, 0x90, 0xbe, 0x7e, 0x24, 0xd1, 0xbe, 0x93, 0x36, 0x07, 0xbf, 
	0x65, 0x79, 0xa5, 0xbe, 0x2d, 0x5f, 0x70, 0xbe, 0x54, 0x06, 0x5c, 0xbe, 
	0x9d, 0x6e, 0x0c, 0xbf, 0x6e, 0x94, 0xff, 0x3c, 0x66, 0x57, 0xc7, 0xbe, 
	0x8c, 0x50, 0x4f, 0x3d, 0x6e, 0x06, 0xfa, 0xba, 0x27, 0x96, 0x27, 0x3e, 
	0x16, 0xa1, 0x46, 0x3e, 0x7b, 0xf7, 0x92, 0xbe, 0xf4, 0x67, 0xa9, 0xbd, 
	0xc0, 0xf9, 0x18, 0x3e, 0x1c, 0xb8, 0x38, 0x3d, 0xb8, 0xf5, 0x5e, 0x3e, 
	0x27, 0x99, 0x69, 0x3e, 0x4b, 0xa7, 0x8c, 0x3e, 0x74, 0x9c, 0x8b, 0x3e, 
	0xdf, 0x55, 0x09, 0xbf, 0xa1, 0x1e, 0xf5, 0xbd, 0x8f, 0xae, 0xc7, 0x3d, 
	0x85, 0x39, 0x5e, 0xbd, 0xd9, 0x3c, 0x02, 0xbe, 0x3f, 0x1c, 0x9e, 0xbd, 
	0x14, 0x6a, 0x3f, 0x3d, 0x29, 0xda, 0xd2, 0x3d, 0x42, 0xec, 0x59, 0x39, 
	0xf9, 0x28, 0xbe, 0xbe, 0x17, 0x0c, 0xa3, 0x3d, 0xab, 0x09, 0xb5, 0xbe, 
	0x8a, 0xa8, 0x28, 0x3e, 0xb1, 0xea, 0xb3, 0x3e, 0xc0, 0xa8, 0x30, 0xbd, 
	0xb3, 0x94, 0x19, 0x3e, 0x9b, 0x5c, 0xb1, 0x3e, 0xa0, 0x69, 0xb4, 0x3d, 
	0x2a, 0x2e, 0xf8, 0xbd, 0xe9, 0xa8, 0x40, 0xbe, 0x45, 0x73, 0x88, 0xbe, 
	0x46, 0x6d, 0x7a, 0xbe, 0xd8, 0x32, 0x8f, 0xbe, 0xa9, 0xdd, 0x9e, 0xbe, 
	0x99, 0xf9, 0x55, 0x3e, 0x65, 0x69, 0xf3, 0xbe, 0xb9, 0x13, 0x8f, 0xbe, 
	0xcb, 0xc3, 0xa5, 0xbe, 0xec, 0xe2, 0x15, 0xbe, 0xbf, 0xde, 0x70, 0xbe, 
	0x4e, 0x04, 0x78, 0xbb, 0xfb, 0xfd, 0x53, 0xbe, 0xfe, 0x0e, 0x56, 0xbe, 
	0xd1, 0x6f, 0xfe, 0xbe, 0x4b, 0xa3, 0x34, 0xbe, 0x21, 0x3b, 0xe6, 0xbd, 
	0xb5, 0x1a, 0x81, 0x3c, 0xfa, 0xcd, 0xf7, 0x3b, 0xf3, 0x33, 0x52, 0xbc, 
	0x2a, 0xba, 0x90, 0x3d, 0x6f, 0xc7, 0xf6, 0xbd, 0xef, 0x15, 0x39, 0x3e, 
	0x0c, 0x32, 0x97, 0xbb, 0x84, 0x2e, 0xe2, 0x3c, 0x36, 0x56, 0x04, 0xbd, 
	0xb6, 0x79, 0x1b, 0x3c, 0xc0, 0x15, 0x1f, 0xbd, 0x7a, 0xb9, 0x96, 0x3d, 
	0xae, 0xee, 0x3f, 0xbf, 0xf2, 0x28, 0x35, 0xbe, 0x77, 0x56, 0xcc, 0xbe, 
	0x2f, 0xb2, 0x1b, 0x3e, 0x02, 0x1e, 0xf7, 0x3c, 0xe8, 0x07, 0xc3, 0xbe, 
	0xc5, 0xe7, 0x20, 0x3e, 0x90, 0x19, 0xba, 0x3d, 0xc5, 0x1b, 0x53, 0xbe, 
	0xd8, 0x35, 0x9c, 0xbc, 0xde, 0x0c, 0x63, 0x3e, 0xfd, 0xc1, 0x8a, 0xbe, 
	0x67, 0xf8, 0x0f, 0xbe, 0x1b, 0x26, 0x0b, 0x3d, 0x77, 0x8f, 0xc1, 0x3d, 
	0x0b, 0x17, 0x84, 0x3d, 0xf1, 0x25, 0x17, 0x3e, 0x7b, 0x67, 0x82, 0xbe, 
	0xcf, 0x05, 0xb6, 0x3d, 0xa9, 0xae, 0x02, 0xbe, 0x4e, 0x5a, 0x28, 0xbe, 
	0x10, 0xc3, 0x40, 0x3d, 0xc2, 0x96, 0xba, 0xbd, 0xfe, 0x17, 0x4b, 0xbd, 
	0x68, 0xbf, 0x8f, 0x3d, 0x11, 0x98, 0xe4, 0xbe, 0x9e, 0xe7, 0x8f, 0xbd, 
	0xbc, 0xf1, 0x00, 0x3e, 0xfb, 0xcd, 0xd4, 0x3d, 0xb0, 0xcf, 0xf4, 0x3c, 
	0x59, 0xdb, 0xca, 0x3c, 0xf7, 0xf3, 0x9a, 0x3d, 0xab, 0xe6, 0x36, 0xbd, 
	0x1a, 0x15, 0x2d, 0xbe, 0x02, 0xe4, 0xf8, 0x3d, 0xf0, 0x11, 0x26, 0x3e, 
	0x74, 0xbf, 0x25, 0x3d, 0xed, 0x57, 0x2e, 0xbd, 0xd1, 0x01, 0x92, 0x3d, 
	0xee, 0xed, 0x1b, 0x3e, 0x01, 0x0a, 0xdc, 0x3b, 0x74, 0x5b, 0x3c, 0x3c, 
	0x33, 0x5a, 0x0f, 0xbe, 0x98, 0xc8, 0x8f, 0x3c, 0xa7, 0xe5, 0x25, 0xbe, 
	0xef, 0xc0, 0x7f, 0xbe, 0x04, 0x63, 0x52, 0xbe, 0x01, 0xe6, 0x63, 0x3b, 
	0x64, 0xd2, 0x8e, 0xbe, 0x4f, 0xde, 0x68, 0xbd, 0x75, 0x03, 0x3b, 0xbe, 
	0x63, 0xa3, 0x3f, 0xbe, 0xbf, 0x12, 0xb6, 0xbe, 0x14, 0xe6, 0xcb, 0xbe, 
	0xb0, 0x0b, 0x18, 0xbe, 0xe6, 0x38, 0xee, 0xbd, 0xe1, 0xe5, 0xdd, 0xbd, 
	0xe9, 0x4d, 0x09, 0x3f, 0x42, 0x6e, 0x0a, 0xbe, 0xe9, 0x14, 0x0a, 0xbf, 
	0x1a, 0xf0, 0xac, 0xbe, 0x26, 0xbd, 0x48, 0xbe, 0x9e, 0xde, 0x2d, 0xbe, 
	0xa5, 0xdb, 0xa3, 0xbc, 0x28, 0x28, 0x24, 0x3e, 0x09, 0xfb, 0x62, 0xbe, 
	0x7f, 0xc0, 0xea, 0x3d, 0x17, 0xa7, 0x3a, 0xbf, 0xe5, 0xc4, 0x77, 0x3c, 
	0xc9, 0xfd, 0x0f, 0x3e, 0xf0, 0x81, 0x33, 0xbe, 0x71, 0x16, 0xd7, 0x3d, 
	0x1d, 0x93, 0xa7, 0xbc, 0x3d, 0x14, 0xbd, 0xbd, 0x58, 0xc4, 0x57, 0xbe, 
	0xdb, 0xd5, 0x48, 0xbe, 0xdf, 0xff, 0x1c, 0x3d, 0x9d, 0x5f, 0xb4, 0xbe, 
	0xc6, 0x70, 0x33, 0x3b, 0x7e, 0xfa, 0x66, 0xbe, 0x6e, 0xaf, 0x75, 0xbe, 
	0x02, 0x89, 0x90, 0x3b, 0x34, 0xcd, 0x0d, 0xbd, 0x5a, 0x83, 0x22, 0x3d, 
	0x8f, 0x36, 0x24, 0xbd, 0x09, 0xc1, 0x9a, 0xbe, 0x6d, 0x6f, 0x5e, 0xbd, 
	0x13, 0x39, 0xb6, 0xbd, 0x87, 0xc0, 0x12, 0xbd, 0xf1, 0xea, 0x58, 0x3d, 
	0x37, 0x0d, 0xbd, 0xbc, 0xf0, 0x01, 0x27, 0x3e, 0xee, 0x1e, 0xea, 0xbe, 
	0x3c, 0x20, 0xc4, 0xbd, 0x7c, 0xcf, 0x30, 0xbe, 0x9a, 0x2c, 0x70, 0xbe, 
	0xf5, 0x75, 0x9a, 0x3d, 0x08, 0xce, 0x48, 0xbd, 0x85, 0x03, 0x8c, 0x3c, 
	0xce, 0x8c, 0x07, 0xbf, 0xb4, 0xae, 0xcf, 0xbe, 0xde, 0x84, 0xec, 0xbd, 
	0xc0, 0x22, 0xdf, 0xbe, 0x26, 0xd4, 0x8d, 0xbb, 0x6e, 0x26, 0xae, 0x3e, 
	0x9f, 0x5b, 0xa9, 0xbe, 0xa9, 0xfe, 0xfe, 0xbd, 0x39, 0x4f, 0x1e, 0xbf, 
	0xad, 0xd4, 0x21, 0x3d, 0xca, 0x67, 0x04, 0x3e, 0xa1, 0x15, 0x3c, 0xbd, 
	0x9a, 0x51, 0xd8, 0x3d, 0xa8, 0x8e, 0xca, 0xbc, 0xb3, 0x3e, 0x32, 0xbf, 
	0x08, 0x86, 0x82, 0x3d, 0x36, 0xd5, 0xae, 0xbe, 0x43, 0x43, 0xb1, 0x3e, 
	0xbf, 0x78, 0xa1, 0x3d, 0xf4, 0x99, 0x58, 0x3e, 0xf1, 0x01, 0x5f, 0x3e, 
	0xbc, 0xae, 0x94, 0x3e, 0x18, 0x40, 0x62, 0xbe, 0x4f, 0x29, 0xc7, 0x3d, 
	0x30, 0x93, 0xcc, 0xbd, 0x4f, 0xf9, 0x29, 0x3e, 0xc3, 0x95, 0x90, 0xbd, 
	0xf6, 0xef, 0x61, 0x3e, 0xbc, 0xd4, 0xf7, 0xbd, 0x99, 0xe2, 0xf9, 0x3d, 
	0x70, 0xe5, 0xc1, 0x3c, 0x50, 0x42, 0x0f, 0x3c, 0x58, 0xb5, 0x45, 0xbc, 
	0xfd, 0x2f, 0x40, 0xbd, 0x8a, 0x0c, 0xc1, 0xbe, 0x9c, 0x6b, 0x35, 0x3d, 
	0xd8, 0x71, 0x3a, 0xbe, 0x6a, 0xd1, 0x1c, 0xbe, 0x33, 0x40, 0x90, 0xbd, 
	0xdf, 0x24, 0x48, 0xbe, 0x0c, 0x3e, 0x29, 0x3c, 0x49, 0x15, 0xdf, 0xbe, 
	0x0f, 0x78, 0x1d, 0xbe, 0xa5, 0x07, 0x3d, 0xbd, 0x91, 0x64, 0x0d, 0xbf, 
	0xf0, 0xe1, 0x84, 0x3e, 0x4c, 0x8b, 0xb0, 0xbd, 0x25, 0xf4, 0xba, 0xbe, 
	0x91, 0x0e, 0xb4, 0xbe, 0x3d, 0x1e, 0x95, 0xbd, 0xe9, 0x22, 0x5d, 0x3e, 
	0xf7, 0x20, 0x5b, 0xbc, 0xed, 0x90, 0x90, 0xbd, 0x33, 0x46, 0xa8, 0xbe, 
	0x74, 0x11, 0xce, 0xbe, 0x18, 0xfe, 0x52, 0x3c, 0x91, 0x63, 0xad, 0x3e, 
	0x3b, 0x6e, 0x50, 0x3e, 0xcd, 0x66, 0x6f, 0xbd, 0x3b, 0xa9, 0xc6, 0x3d, 
	0x51, 0x7b, 0x83, 0x3d, 0xc9, 0x0c, 0x8f, 0xbe, 0x7a, 0xe5, 0xbb, 0xbe, 
	0x04, 0x9f, 0x77, 0x3c, 0x0e, 0xde, 0xf1, 0x3d, 0xd2, 0x70, 0xb3, 0x3d, 
	0x04, 0xf0, 0x23, 0xbc, 0x35, 0xb4, 0xab, 0x3c, 0x25, 0xf6, 0x2d, 0x3e, 
	0xfa, 0xc6, 0x56, 0x3e, 0xf7, 0x6d, 0x54, 0xbe, 0xa4, 0x36, 0x91, 0x3e, 
	0x5b, 0x1b, 0x57, 0x3d, 0x91, 0x87, 0xf4, 0x3d, 0x26, 0xdf, 0xe0, 0xbd, 
	0xc9, 0x33, 0xe1, 0x3d, 0x4d, 0x30, 0xf9, 0x3d, 0xa7, 0xe3, 0xe6, 0x3d, 
	0xb6, 0xc5, 0x31, 0x3e, 0x93, 0x60, 0x4e, 0x3d, 0x1d, 0x1e, 0x72, 0x3d, 
	0xee, 0xc4, 0xcc, 0xbd, 0x4f, 0x35, 0x16, 0xbd, 0xc6, 0xcd, 0x83, 0x3d, 
	0xf8, 0xf4, 0x76, 0xbe, 0xaf, 0x16, 0xed, 0x3a, 0xb2, 0xe6, 0xa5, 0xbd, 
	0x6a, 0x4c, 0xa9, 0xbe, 0xc7, 0x04, 0xf1, 0xbc, 0xbd, 0x9d, 0x6d, 0xbd, 
	0xa1, 0x34, 0x67, 0xbe, 0xf1, 0xad, 0x64, 0xbd, 0x78, 0x35, 0x0b, 0xbf, 
	0xbf, 0x67, 0x24, 0xbf, 0x0f, 0x92, 0x8f, 0xbe, 0x63, 0xbc, 0xf1, 0x3c, 
	0xbb, 0x4b, 0xdc, 0xbc, 0xfe, 0x5e, 0xac, 0xbc, 0x3c, 0x86, 0xca, 0xbd, 
	0x36, 0x56, 0x74, 0xbd, 0x12, 0xf1, 0xca, 0x3d, 0x0a, 0xb1, 0xae, 0xbe, 
	0xe3, 0x31, 0x86, 0x3c, 0x18, 0x02, 0x2a, 0xba, 0x42, 0x4a, 0x62, 0xbd, 
	0x9a, 0x42, 0x19, 0xbe, 0x50, 0x33, 0x4b, 0xbe, 0x16, 0x87, 0x58, 0x3d, 
	0xdd, 0xda, 0x05, 0x3e, 0x74, 0x9a, 0xc2, 0xbd, 0xfb, 0x56, 0x2c, 0xbe, 
	0x1d, 0xc0, 0x2e, 0x3e, 0x6b, 0xfd, 0xae, 0xbd, 0xf8, 0x6f, 0x78, 0x3d, 
	0xaa, 0x03, 0x39, 0xbe, 0xd7, 0x46, 0x95, 0xbc, 0x26, 0xb4, 0x4e, 0x3e, 
	0x09, 0xe9, 0xb3, 0xbb, 0x22, 0xda, 0x97, 0x3c, 0x6a, 0x58, 0xc3, 0x3d, 
	0xb9, 0x40, 0x29, 0xbd, 0xbd, 0xda, 0x39, 0x3e, 0x14, 0xfb, 0xba, 0x3d, 
	0x47, 0x68, 0x45, 0x3d, 0xa2, 0x6c, 0x64, 0xbe, 0x4e, 0xfc, 0x09, 0xbd, 
	0x86, 0xb6, 0x5a, 0x3e, 0x9c, 0xb1, 0x27, 0x3d, 0xba, 0x96, 0x26, 0x3e, 
	0x47, 0xf3, 0x18, 0xbe, 0xf9, 0x0b, 0x89, 0xbc, 0x4e, 0x2c, 0x83, 0x3d, 
	0xb5, 0xb1, 0x86, 0xbe, 0x0d, 0xf8, 0x99, 0xbe, 0xd4, 0x4d, 0x86, 0xbc, 
	0x24, 0xbc, 0x63, 0xbe, 0x8d, 0x9e, 0xca, 0xbc, 0x2d, 0xeb, 0xbe, 0xbe, 
	0xf8, 0x19, 0x7c, 0x39, 0xc2, 0xfa, 0xd5, 0xbe, 0xad, 0xc1, 0xb8, 0x3a, 
	0x2c, 0x37, 0x56, 0xbe, 0x0a, 0x1a, 0x0b, 0xbe, 0xe5, 0x62, 0xc0, 0xbd, 
	0xfa, 0xad, 0xed, 0xbd, 0xe1, 0xd9, 0x08, 0xbe, 0xa7, 0x7d, 0x9f, 0xbe, 
	0x3d, 0xd4, 0x96, 0xbd, 0xb8, 0x5c, 0xb5, 0x3c, 0xe2, 0x88, 0xa3, 0xbe, 
	0xea, 0x0e, 0xfa, 0xbd, 0xa9, 0x4c, 0x85, 0xbd, 0x32, 0x1a, 0xc3, 0xbd, 
	0x17, 0x6e, 0xda, 0xbc, 0x2c, 0x12, 0x0b, 0x3e, 0xc2, 0xa8, 0x60, 0x3c, 
	0x28, 0x43, 0x50, 0xbd, 0x60, 0xad, 0x80, 0xbe, 0x7a, 0x03, 0xf1, 0xbe, 
	0xd6, 0x54, 0x2a, 0x3e, 0x58, 0xb4, 0x86, 0xbe, 0x68, 0x4f, 0xa2, 0x3d, 
	0x6f, 0x97, 0x99, 0x3d, 0xfc, 0xbd, 0x98, 0x3d, 0x7b, 0xd9, 0x7e, 0x3e, 
	0x62, 0xe1, 0x04, 0x3e, 0xd1, 0x24, 0xf8, 0xbd, 0x4c, 0x9a, 0xcf, 0x3d, 
	0x07, 0xfa, 0x4d, 0xbd, 0x51, 0x00, 0x3d, 0x3e, 0xcf, 0xa8, 0x3a, 0xbe, 
	0x67, 0x01, 0xee, 0x3d, 0xbd, 0x5d, 0x28, 0xbd, 0x99, 0xc4, 0x85, 0xbd, 
	0xc2, 0x15, 0xea, 0x3d, 0x98, 0x9e, 0xf5, 0x3d, 0xba, 0x2c, 0xca, 0xbd, 
	0x73, 0x01, 0x13, 0xbe, 0xdb, 0x87, 0x77, 0xbe, 0xad, 0xa8, 0xf5, 0x3c, 
	0x57, 0x61, 0x90, 0xbe, 0x0b, 0xf5, 0x98, 0xbd, 0x96, 0xad, 0xb8, 0xbc, 
	0x32, 0x49, 0x94, 0xbe, 0xb4, 0x0b, 0x10, 0x3d, 0x43, 0xeb, 0x24, 0xbe, 
	0x26, 0x3b, 0x84, 0xbe, 0x72, 0x86, 0x4f, 0xbe, 0x92, 0x98, 0xef, 0xbe, 
	0xaf, 0x7b, 0x2e, 0xbd, 0x2d, 0xbf, 0x73, 0x3d, 0xf7, 0xe7, 0xf7, 0xbd, 
	0x21, 0x96, 0x6d, 0xbe, 0xde, 0xc1, 0x45, 0xbd, 0x67, 0x80, 0x4e, 0xbe, 
	0x7b, 0x5d, 0x26, 0xbe, 0x48, 0x46, 0x1b, 0xbe, 0x73, 0x86, 0xb7, 0xbe, 
	0xfc, 0x03, 0x4d, 0xbe, 0x2f, 0xca, 0x39, 0xbe, 0x6c, 0x68, 0xa7, 0xbc, 
	0x30, 0xb4, 0x7b, 0x3c, 0x18, 0xb8, 0x98, 0xbd, 0x80, 0x79, 0xb9, 0xbc, 
	0x03, 0x1f, 0xeb, 0xbd, 0x60, 0xd6, 0x62, 0xbe, 0x9d, 0xb2, 0x9b, 0xbc, 
	0xe7, 0xf9, 0xca, 0xbd, 0x28, 0xed, 0x16, 0x3d, 0x3e, 0x88, 0x19, 0x3b, 
	0xd5, 0xe0, 0xe8, 0x3d, 0xf4, 0x39, 0x19, 0x3d, 0xf3, 0xca, 0xd9, 0x3d, 
	0x4f, 0xb4, 0x61, 0x38, 0x0b, 0x0e, 0x5e, 0xbe, 0x6a, 0xfd, 0x4f, 0x3d, 
	0xc9, 0x07, 0x82, 0xbe, 0x79, 0xf9, 0xf1, 0xbb, 0x1f, 0xc8, 0xb8, 0x3d, 
	0x17, 0x0b, 0xb9, 0xbc, 0xb7, 0x29, 0x98, 0x3e, 0xa7, 0x72, 0x5e, 0x3e, 
	0xc6, 0xde, 0x5c, 0xbe, 0x81, 0xd7, 0x8b, 0x3e, 0xa1, 0x58, 0x8d, 0xbe, 
	0x08, 0xa2, 0x98, 0xbd, 0xcd, 0x71, 0x56, 0x3e, 0xb5, 0x0b, 0x86, 0xbd, 
	0xbf, 0x40, 0x53, 0xbd, 0x3d, 0xd9, 0x48, 0x3e, 0x10, 0xa0, 0x8d, 0xbd, 
	0x3f, 0xb6, 0xed, 0xbd, 0x19, 0x75, 0xa6, 0xbe, 0xb0, 0xda, 0x18, 0x3e, 
	0x9c, 0x08, 0xbb, 0xbe, 0xd7, 0x4c, 0xc7, 0x3c, 0xc6, 0x92, 0x17, 0xbc, 
	0xdf, 0x1e, 0x39, 0x3d, 0x73, 0x7e, 0x32, 0xbe, 0x84, 0x7d, 0x8e, 0x3e, 
	0xaa, 0xbd, 0x69, 0x3e, 0x71, 0x39, 0x7c, 0x3e, 0x12, 0x16, 0x1b, 0x3e, 
	0x2b, 0x87, 0xbd, 0x3d, 0x07, 0xcf, 0x42, 0x3c, 0x77, 0x07, 0xfe, 0x3d, 
	0x6e, 0x5b, 0x36, 0x3e, 0xd9, 0x2f, 0x69, 0x3d, 0x33, 0xd8, 0xaa, 0x3e, 
	0xe4, 0xe6, 0x83, 0xbd, 0x5e, 0xc0, 0x29, 0x3d, 0x34, 0x8f, 0x3a, 0x3e, 
	0x3a, 0x71, 0x06, 0x3e, 0x11, 0xac, 0x04, 0xbe, 0xf7, 0x76, 0xa1, 0x3d, 
	0x3c, 0x5e, 0x19, 0xbd, 0x3e, 0x9f, 0x29, 0x3e, 0x54, 0x63, 0x47, 0xbe, 
	0x9c, 0x9e, 0x4d, 0xbd, 0x7a, 0x4e, 0xf0, 0xbd, 0x13, 0x80, 0x46, 0x3e, 
	0x64, 0x09, 0x0e, 0x3d, 0xc1, 0x8b, 0x94, 0xbe, 0xa4, 0x0d, 0x9f, 0xbc, 
	0xc2, 0x07, 0x03, 0xbe, 0x63, 0x33, 0xdd, 0x3d, 0x70, 0xbb, 0xa1, 0xbc, 
	0x17, 0x1d, 0xf9, 0x3d, 0x23, 0x47, 0x91, 0xbc, 0x45, 0x0d, 0x73, 0xbd, 
	0x20, 0xed, 0x4c, 0x3e, 0x64, 0x18, 0x38, 0xbe, 0x08, 0x64, 0xec, 0x3c, 
	0x33, 0xf9, 0x87, 0xbd, 0xe6, 0x69, 0xc2, 0xbd, 0xab, 0x88, 0x0a, 0xbe, 
	0x98, 0x2e, 0xba, 0x3c, 0x1c, 0xfa, 0xdd, 0xbb, 0x84, 0xe3, 0xed, 0xbd, 
	0x23, 0x4d, 0xcd, 0xbc, 0x09, 0xec, 0x08, 0xbe, 0x7b, 0x16, 0x0f, 0x3e, 
	0x2a, 0x2a, 0x9a, 0x3e, 0xe0, 0x17, 0xe1, 0xbd, 0xd6, 0x42, 0xde, 0x3d, 
	0x9f, 0xd2, 0x90, 0xbe, 0x7e, 0xdb, 0x13, 0x3e, 0xc3, 0x67, 0x80, 0x3d, 
	0xcb, 0x31, 0xad, 0x3e, 0x0e, 0x52, 0x32, 0x3c, 0xac, 0x8a, 0x90, 0x3d, 
	0x1b, 0xee, 0x5f, 0x3d, 0x25, 0xc8, 0xcd, 0x3d, 0x2e, 0x03, 0x35, 0xbf, 
	0x7c, 0xed, 0x9a, 0x3e, 0x95, 0x46, 0xf8, 0x3d, 0x73, 0x25, 0xa8, 0x3e, 
	0x9a, 0x07, 0x0e, 0xbe, 0xfb, 0x1f, 0x04, 0xbe, 0x2f, 0x50, 0xae, 0xbd, 
	0xfa, 0x5f, 0xfa, 0xbc, 0xdf, 0x34, 0x11, 0xbf, 0xde, 0xaf, 0x52, 0xbd, 
	0x1a, 0x10, 0x47, 0xbe, 0xec, 0x32, 0x1b, 0x3e, 0x5f, 0x61, 0x9e, 0xbe, 
	0xb6, 0x8b, 0x19, 0x3c, 0xee, 0xb4, 0x97, 0xbe, 0x99, 0xd0, 0x1b, 0x3e, 
	0x3a, 0xfe, 0x6d, 0xbe, 0x8d, 0xa2, 0x02, 0xbe, 0x2f, 0x64, 0x33, 0x3d, 
	0x81, 0x29, 0xfb, 0xbd, 0x5b, 0x2b, 0x98, 0xbd, 0x3f, 0xef, 0xaf, 0x3d, 
	0x25, 0x2a, 0xbb, 0x3d, 0x42, 0xab, 0xe8, 0x3d, 0xc3, 0xfe, 0x35, 0xbd, 
	0x8f, 0x65, 0xae, 0xbd, 0x53, 0xf7, 0x0c, 0x3d, 0x76, 0x20, 0x50, 0x3e, 
	0x35, 0x29, 0x3a, 0xbc, 0x44, 0xb8, 0x1a, 0x3d, 0xa3, 0x0c, 0x90, 0xbd, 
	0xa9, 0xf3, 0x57, 0x3d, 0x74, 0x8f, 0x46, 0x3d, 0xb4, 0xca, 0x2d, 0xbe, 
	0x8c, 0x5f, 0x08, 0xbe, 0x54, 0x58, 0x74, 0xbd, 0xf8, 0xfd, 0xd5, 0x3d, 
	0x1e, 0x93, 0xb5, 0x3e, 0x60, 0x73, 0x39, 0xbd, 0xdf, 0xb9, 0xff, 0x3d, 
	0x98, 0xfc, 0x26, 0xbe, 0x83, 0x0c, 0xbc, 0x3e, 0xc4, 0x31, 0x10, 0xbe, 
	0x46, 0x00, 0x15, 0x3e, 0x5b, 0x7d, 0x04, 0xbe, 0x14, 0x96, 0x98, 0xbe, 
	0x12, 0x24, 0x40, 0xbe, 0x08, 0x09, 0xf3, 0xbe, 0x1c, 0x04, 0x85, 0xbe, 
	0x6d, 0xc9, 0xd7, 0x3e, 0xd5, 0x88, 0x78, 0xbe, 0xfc, 0x30, 0xde, 0xbd, 
	0x26, 0x2f, 0x10, 0xbf, 0xf5, 0xa6, 0x9f, 0xbe, 0x62, 0x35, 0x84, 0xbe, 
	0x8d, 0xba, 0x5c, 0xbe, 0x28, 0xe4, 0xe7, 0xbe, 0xbc, 0x25, 0x2f, 0xbe, 
	0xfc, 0xd6, 0x29, 0xbc, 0x65, 0xc7, 0x3c, 0xbe, 0x3a, 0x02, 0x04, 0xbe, 
	0x06, 0x13, 0x70, 0xbe, 0xd1, 0xc7, 0x47, 0xbe, 0x24, 0x5a, 0xde, 0xbc, 
	0xbc, 0x80, 0xac, 0xbe, 0x5c, 0x6a, 0x86, 0xbd, 0x4f, 0xff, 0x61, 0x3d, 
	0xf8, 0xdf, 0x9a, 0xbe, 0x07, 0x54, 0x97, 0xbb, 0xa2, 0xd2, 0xde, 0x3d, 
	0xc8, 0xb2, 0x23, 0xbd, 0x18, 0xf8, 0x72, 0xbe, 0x29, 0xd4, 0x91, 0xbe, 
	0x36, 0x35, 0x5a, 0x3e, 0x5b, 0xcd, 0xcc, 0xbc, 0x69, 0x82, 0x37, 0x3e, 
	0x66, 0x42, 0xbb, 0xbd, 0x0e, 0x01, 0xa5, 0xbe, 0x9f, 0x4b, 0x96, 0xbc, 
	0x7b, 0x9e, 0x45, 0xbe, 0x5e, 0x6b, 0x3a, 0xbc, 0x1f, 0x7a, 0xdd, 0xbd, 
	0x9d, 0x6a, 0x00, 0xbe, 0x09, 0xd1, 0x48, 0x3e, 0x0f, 0x38, 0x3d, 0xbe, 
	0x03, 0x88, 0xb8, 0x3c, 0x1c, 0x8e, 0x42, 0xbe, 0x84, 0x09, 0x93, 0x3e, 
	0xc1, 0x4b, 0xb2, 0x3e, 0x1a, 0x0f, 0x9c, 0x3e, 0x38, 0x3c, 0xd8, 0xbd, 
	0xd3, 0xfe, 0x44, 0xbe, 0xd8, 0xe0, 0xcb, 0xbe, 0xbf, 0x2c, 0x25, 0x3e, 
	0x56, 0xd2, 0xa4, 0xbe, 0x02, 0x36, 0xad, 0xbe, 0x94, 0x53, 0xd7, 0x3d, 
	0xca, 0x3b, 0x5b, 0xbc, 0x3e, 0xe4, 0x98, 0xbe, 0x19, 0x2c, 0x49, 0xbf, 
	0x10, 0xf1, 0x84, 0xbe, 0x49, 0x0a, 0x58, 0xbe, 0xf5, 0xf2, 0xdf, 0xbe, 
	0x63, 0xa2, 0x0c, 0xbe, 0xab, 0xbf, 0x4e, 0xbe, 0x73, 0x52, 0x12, 0xbf, 
	0x34, 0xfb, 0x18, 0xbe, 0x3e, 0xe2, 0x0a, 0xbf, 0x1e, 0xc5, 0x51, 0x3d, 
	0xb4, 0x6a, 0x50, 0xbe, 0x6d, 0x58, 0xdf, 0x3d, 0x05, 0xef, 0x99, 0xbe, 
	0x82, 0x18, 0x99, 0xbe, 0x9b, 0xe7, 0x32, 0x3e, 0x31, 0x9f, 0x7a, 0xbe, 
	0x7e, 0xb3, 0x2c, 0x3c, 0xa1, 0xa9, 0xd6, 0xbc, 0xc4, 0xd7, 0x41, 0xbe, 
	0xfe, 0xaf, 0x5a, 0x3c, 0xd2, 0x16, 0x8f, 0xbe, 0xf8, 0x1a, 0x77, 0xbe, 
	0xb2, 0x96, 0xc1, 0x3d, 0x0c, 0x3a, 0x39, 0xbe, 0x86, 0x0d, 0x21, 0x3d, 
	0x7c, 0x0f, 0x8a, 0xbe, 0xa2, 0xb3, 0xc6, 0xbe, 0xa3, 0xb4, 0xdb, 0xbe, 
	0xd7, 0x39, 0x1c, 0xbd, 0xcf, 0x7c, 0x8b, 0xbe, 0x9e, 0xcf, 0x82, 0x3c, 
	0xdb, 0x14, 0x02, 0x3d, 0xa2, 0xce, 0xb5, 0x3c, 0x47, 0xae, 0x8a, 0xbe, 
	0x33, 0xfe, 0x75, 0x3e, 0xdb, 0xb7, 0x61, 0xbe, 0x5f, 0x58, 0xb6, 0x3d, 
	0x2c, 0x0f, 0xa8, 0x3e, 0x79, 0x35, 0x16, 0x3e, 0x67, 0xad, 0x75, 0xbe, 
	0x4f, 0x29, 0x2f, 0xbe, 0xea, 0x73, 0x1a, 0xbd, 0xca, 0x97, 0x6a, 0x3e, 
	0x12, 0xd6, 0x6a, 0xbe, 0x16, 0x97, 0xf9, 0x3d, 0xbf, 0xd7, 0x85, 0x3e, 
	0x99, 0x08, 0x88, 0xbe, 0xce, 0xec, 0x22, 0xbe, 0x89, 0x60, 0xea, 0xbe, 
	0x72, 0x0a, 0x03, 0x3d, 0x30, 0xf2, 0x7d, 0x3c, 0xca, 0x9c, 0xa1, 0x3d, 
	0xb3, 0x96, 0x1a, 0x3e, 0xbf, 0x03, 0xa1, 0x3e, 0x75, 0xfc, 0x21, 0xbf, 
	0xdf, 0xf8, 0x99, 0x3e, 0x51, 0xf9, 0xc1, 0xbe, 0x15, 0xe7, 0x5d, 0x3e, 
	0x5b, 0x2b, 0x6d, 0x3d, 0xce, 0x5e, 0x40, 0x3e, 0x06, 0x48, 0x55, 0xbd, 
	0xad, 0x72, 0xa3, 0x3e, 0xa9, 0x93, 0x31, 0x3e, 0xee, 0xfd, 0x2d, 0x3d, 
	0x60, 0x2a, 0x07, 0xbf, 0xb3, 0x69, 0xee, 0xbd, 0x4d, 0x5c, 0xf2, 0xbe, 
	0xa4, 0xb6, 0x35, 0xbe, 0x15, 0xf0, 0x62, 0xbe, 0x0b, 0x9c, 0x4a, 0x3e, 
	0x8e, 0xc2, 0x20, 0x3e, 0x09, 0x6f, 0xe3, 0xbd, 0x3d, 0xcd, 0xdc, 0xbe, 
	0xe7, 0xc1, 0x0a, 0xbe, 0xe0, 0xa8, 0x07, 0xbf, 0x3e, 0x7c, 0x12, 0xbd, 
	0x85, 0x9c, 0xd5, 0xbe, 0x2c, 0x7e, 0x6c, 0x3d, 0x79, 0xf2, 0xea, 0x3d, 
	0x3c, 0x67, 0x21, 0xbe, 0x09, 0x5d, 0x9c, 0xbe, 0x9f, 0xc3, 0xc7, 0x3d, 
	0x17, 0x95, 0x3a, 0xbf, 0xb6, 0x9d, 0x9e, 0x3e, 0x4a, 0x81, 0x4d, 0xbf, 
	0x0e, 0x68, 0xa4, 0xbd, 0x36, 0xd6, 0xa6, 0x3d, 0x12, 0x58, 0x1b, 0x3e, 
	0x96, 0xe2, 0xbc, 0xbd, 0x1b, 0x46, 0xc2, 0x3d, 0x40, 0x5a, 0xaf, 0x3d, 
	0x05, 0x26, 0x82, 0x3c, 0xeb, 0x72, 0x8d, 0x3c, 0x3d, 0xdf, 0x9f, 0xbe, 
	0xbc, 0xbf, 0xd5, 0xbd, 0x5d, 0x16, 0x9a, 0x3d, 0x10, 0xa9, 0x3b, 0xbb, 
	0xba, 0x49, 0x48, 0x3e, 0x14, 0x50, 0x8a, 0xbe, 0x64, 0x41, 0x05, 0x3e, 
	0xe5, 0x25, 0xbd, 0x3d, 0x6d, 0x46, 0x90, 0xbd, 0x05, 0x04, 0x82, 0x3e, 
	0x0f, 0x2c, 0x83, 0x3e, 0x26, 0x2e, 0x5e, 0xbe, 0x3e, 0x26, 0xac, 0x3c, 
	0xe4, 0x23, 0xe8, 0x3e, 0x5a, 0x2e, 0x50, 0x3e, 0x32, 0x5f, 0xdf, 0x3d, 
	0x36, 0x7c, 0x86, 0x3e, 0x64, 0x48, 0x78, 0xbe, 0x83, 0xde, 0x90, 0xbc, 
	0x1e, 0xf7, 0x94, 0xbe, 0x26, 0xcf, 0xd4, 0x3b, 0x35, 0xf8, 0x18, 0x3e, 
	0xe5, 0xdd, 0x27, 0xbd, 0x5a, 0xfd, 0x4a, 0x3e, 0xe1, 0x42, 0xe9, 0x3e, 
	0xf4, 0x80, 0x22, 0xbf, 0x38, 0xef, 0x59, 0xbd, 0xa7, 0x20, 0xc3, 0xbe, 
	0x97, 0xce, 0x56, 0x3e, 0x5b, 0x7c, 0xa3, 0x3e, 0xc1, 0x17, 0x66, 0x3e, 
	0x33, 0x17, 0xd4, 0x3d, 0x8b, 0x18, 0x89, 0x3e, 0x5b, 0xf0, 0x77, 0xbe, 
	0x57, 0x67, 0x9c, 0x3d, 0xa0, 0x23, 0xb9, 0xbc, 0x23, 0x90, 0x87, 0x3e, 
	0x47, 0x57, 0x2c, 0xbe, 0x15, 0x02, 0x80, 0x3e, 0x10, 0xf0, 0x3d, 0x3e, 
	0x41, 0xa5, 0x62, 0xbc, 0x39, 0x78, 0xbc, 0xbd, 0x04, 0xbe, 0x4f, 0xbc, 
	0x77, 0xc5, 0xc5, 0x3e, 0x34, 0x65, 0x7a, 0x3e, 0xdf, 0x89, 0x85, 0x3d, 
	0x8f, 0xe0, 0x4c, 0x3e, 0xb7, 0xb1, 0x18, 0xbe, 0x1a, 0xe5, 0xba, 0xbd, 
	0x33, 0x0d, 0x03, 0x3f, 0x11, 0x2c, 0xb5, 0x3d, 0x43, 0x24, 0xf0, 0x3e, 
	0xdc, 0x2d, 0xc9, 0xbd, 0x27, 0x8f, 0x31, 0xbe, 0x52, 0x46, 0xa0, 0xbc, 
	0xcb, 0x33, 0x96, 0x3b, 0x18, 0x91, 0x10, 0xbf, 0x57, 0x9a, 0xc7, 0xbd, 
	0x95, 0x6c, 0xc8, 0xbc, 0x93, 0xa2, 0x9b, 0x3e, 0x0a, 0x4e, 0x7d, 0xbe, 
	0x1d, 0x46, 0xa7, 0xbe, 0xfe, 0x79, 0xef, 0xbd, 0x01, 0xb7, 0xea, 0x3d, 
	0x52, 0xdf, 0x56, 0xbe, 0xa5, 0xd3, 0x16, 0xbe, 0x66, 0x52, 0x5a, 0x3e, 
	0xcc, 0xfd, 0x9d, 0x3d, 0x10, 0x86, 0x38, 0x3e, 0x7d, 0xe3, 0x78, 0x3e, 
	0xbd, 0x93, 0x5a, 0x3b, 0xc2, 0xd6, 0x3d, 0x3e, 0x34, 0x97, 0x1a, 0xbd, 
	0xa1, 0xef, 0xd1, 0x3e, 0x20, 0xd5, 0x99, 0xbc, 0x8e, 0xa8, 0x42, 0x3e, 
	0xef, 0x2a, 0x8d, 0xbd, 0xb7, 0x0e, 0x11, 0x3e, 0xce, 0x9f, 0x82, 0xbc, 
	0x98, 0x42, 0x54, 0xbc, 0x05, 0xb5, 0x40, 0x3e, 0xfc, 0x52, 0x1d, 0xbe, 
	0x60, 0x5a, 0xfe, 0xbd, 0xf5, 0xb3, 0x31, 0x3e, 0xda, 0x57, 0x2d, 0xbd, 
	0xf3, 0x0e, 0x2d, 0x3e, 0xa2, 0x1d, 0x41, 0xbe, 0xa8, 0xec, 0x39, 0x3e, 
	0xbf, 0x5e, 0xcc, 0xbe, 0xb7, 0x2e, 0x2c, 0x3e, 0x9b, 0xd7, 0x0d, 0x3e, 
	0xd0, 0xf2, 0xa8, 0x3e, 0xf8, 0x63, 0x34, 0x3e, 0x8e, 0xc1, 0x39, 0xbe, 
	0xae, 0x03, 0x54, 0x3e, 0xf9, 0x6a, 0x5a, 0xbe, 0xd5, 0x8f, 0x02, 0xbf, 
	0xc7, 0x8d, 0x11, 0x3f, 0x08, 0x33, 0x91, 0xbd, 0xbf, 0x37, 0x61, 0x3e, 
	0xda, 0xf3, 0x8d, 0xbe, 0xc7, 0xdc, 0x91, 0xbe, 0x28, 0x3a, 0x98, 0xbe, 
	0x0b, 0xbe, 0xc4, 0x3c, 0x54, 0x6c, 0xcc, 0xbe, 0xfc, 0xf1, 0xad, 0x3d, 
	0x30, 0xae, 0x5a, 0xbe, 0x96, 0xc9, 0x93, 0xbe, 0x1a, 0x4e, 0xbf, 0xbe, 
	0x77, 0x75, 0xb5, 0xbd, 0x31, 0x8c, 0x94, 0xbe, 0x93, 0xe8, 0x33, 0xbc, 
	0x99, 0x63, 0xd4, 0xbe, 0xb1, 0x16, 0x9d, 0xbe, 0x4b, 0x15, 0x3b, 0x3e, 
	0x09, 0x10, 0x19, 0xbe, 0x41, 0x22, 0x3c, 0x3e, 0x07, 0xfb, 0x18, 0x3e, 
	0xdd, 0x7b, 0x17, 0x3c, 0xec, 0xbe, 0x7d, 0xbb, 0xc8, 0xdf, 0x72, 0xbe, 
	0x2f, 0xa2, 0xe1, 0x3d, 0xe4, 0xf8, 0x79, 0xbc, 0x78, 0x4d, 0x0e, 0x3e, 
	0x31, 0xe3, 0x77, 0xbe, 0x5c, 0x2e, 0xbc, 0xbe, 0x11, 0xa6, 0x36, 0xbd, 
	0x1d, 0xcc, 0x79, 0xbe, 0xf9, 0xef, 0x10, 0xbe, 0x95, 0x6d, 0xd0, 0xbd, 
	0xcc, 0x45, 0x79, 0xbc, 0x2b, 0xbe, 0x21, 0x3c, 0xcd, 0xd2, 0x92, 0xbe, 
	0xb8, 0x1a, 0x8e, 0x3e, 0xb6, 0x77, 0x6a, 0xbe, 0xec, 0x3b, 0xc6, 0x3e, 
	0x06, 0x24, 0xad, 0x3e, 0x09, 0xbb, 0xc2, 0x3e, 0x88, 0xaf, 0x5a, 0x3e, 
	0x3a, 0xde, 0xbf, 0x3d, 0x24, 0x61, 0xa7, 0xbe, 0x78, 0x23, 0x04, 0x3e, 
	0xd2, 0x95, 0xec, 0xbd, 0x31, 0x83, 0xa9, 0xbe, 0xa1, 0x63, 0xeb, 0xbd, 
	0x81, 0xc8, 0xed, 0x3e, 0x87, 0x51, 0x7c, 0xbe, 0x7c, 0x50, 0x35, 0xbe, 
	0xb1, 0x36, 0xa2, 0xbe, 0x49, 0xc8, 0x98, 0xbe, 0x6f, 0x25, 0xc7, 0xbe, 
	0x82, 0xb1, 0x1c, 0xbe, 0xc5, 0x40, 0x88, 0xbe, 0xa2, 0xda, 0x0f, 0xbf, 
	0x8e, 0x92, 0x4a, 0xbe, 0x87, 0x95, 0xaa, 0xbe, 0xfb, 0x3b, 0xb1, 0xbd, 
	0x0e, 0xcb, 0xbb, 0x3d, 0xca, 0x09, 0x19, 0xbe, 0xed, 0x8f, 0x8f, 0x3d, 
	0x95, 0xc8, 0x2d, 0x3d, 0xd7, 0x15, 0x96, 0xbe, 0x55, 0x5b, 0xa4, 0x3d, 
	0x30, 0x84, 0xd2, 0xbe, 0xee, 0xc1, 0x46, 0x3d, 0x61, 0xb7, 0x11, 0x3e, 
	0x16, 0xf5, 0x55, 0x3e, 0x5a, 0x6d, 0x0f, 0xba, 0x54, 0x33, 0xc1, 0x3d, 
	0xb0, 0x52, 0x53, 0x3e, 0x44, 0x63, 0x36, 0xbe, 0xb1, 0x33, 0xa4, 0xbd, 
	0xec, 0xf5, 0xd1, 0xbc, 0xf0, 0x67, 0x35, 0xbf, 0x52, 0x14, 0x10, 0x3c, 
	0xe6, 0xf7, 0xe1, 0xbe, 0x30, 0x01, 0xfd, 0xbd, 0x11, 0x64, 0xc3, 0x3d, 
	0x49, 0xab, 0x4e, 0xbe, 0xe8, 0x33, 0x9a, 0xbe, 0x45, 0x77, 0x0b, 0xbe, 
	0x3e, 0xbc, 0x7c, 0x3d, 0xeb, 0x9b, 0x61, 0xbd, 0xce, 0xb9, 0xcc, 0xbd, 
	0x90, 0x50, 0x93, 0x3e, 0xda, 0x42, 0x53, 0x3e, 0x5b, 0x09, 0x9a, 0xbe, 
	0x7b, 0x96, 0x66, 0xbe, 0x6f, 0x5f, 0xbb, 0xbe, 0x06, 0xd4, 0x50, 0x3d, 
	0xcf, 0xe3, 0x81, 0xbe, 0xa4, 0x07, 0xc8, 0xbe, 0xcf, 0x5e, 0xae, 0xbe, 
	0x59, 0xf4, 0xf5, 0x3d, 0x40, 0x8c, 0x0d, 0xbf, 0x5c, 0xc1, 0xc0, 0x3d, 
	0x7b, 0xde, 0x9c, 0xbe, 0x28, 0x32, 0xc3, 0xbe, 0xcb, 0x2b, 0x90, 0xbe, 
	0x86, 0xc8, 0x62, 0xbe, 0x11, 0x94, 0x4d, 0xbf, 0x29, 0x01, 0x46, 0xbe, 
	0xe4, 0x40, 0xbc, 0xbe, 0x0a, 0xef, 0x95, 0x3d, 0x0f, 0xc3, 0xac, 0xbc, 
	0x3e, 0xa6, 0xfe, 0x3c, 0x5f, 0xd8, 0x82, 0xbc, 0x6d, 0x18, 0x93, 0x3e, 
	0x7a, 0xc8, 0x16, 0x3e, 0x01, 0xb1, 0x8f, 0xbe, 0x2d, 0x2a, 0x6d, 0x3e, 
	0x55, 0x3c, 0xb5, 0xbe, 0x4e, 0x5b, 0x2d, 0xbd, 0x81, 0x1b, 0x04, 0x3f, 
	0x1e, 0x45, 0xef, 0xbd, 0x46, 0xa6, 0x87, 0x3e, 0xec, 0x4d, 0xb6, 0x3e, 
	0xba, 0xa0, 0x8a, 0xbe, 0x6d, 0xe2, 0x2a, 0x3e, 0x9b, 0x6c, 0x24, 0xbe, 
	0xbc, 0x3d, 0xa2, 0xbb, 0xa7, 0xa7, 0xa1, 0x3d, 0xcd, 0x52, 0xc7, 0xbd, 
	0xf8, 0xa2, 0xa3, 0x3d, 0xc9, 0xb5, 0x5d, 0x3e, 0x9b, 0x96, 0xe7, 0xbd, 
	0x9f, 0x47, 0x3a, 0xbe, 0xd0, 0xe3, 0x97, 0xbe, 0xbd, 0xac, 0x85, 0x3e, 
	0xfa, 0xb2, 0xc7, 0xbe, 0x6f, 0x85, 0x29, 0x3e, 0xac, 0xee, 0x52, 0xbe, 
	0xf8, 0xe8, 0xda, 0x3e, 0x60, 0xff, 0x81, 0x3e, 0x17, 0xdc, 0xef, 0x3d, 
	0x8c, 0x3d, 0xe7, 0xbe, 0x09, 0x8d, 0xb7, 0xbe, 0x08, 0x96, 0x4d, 0x3e, 
	0xae, 0x38, 0x7e, 0xbe, 0x5e, 0x33, 0x13, 0xbd, 0x06, 0xd5, 0x34, 0x3e, 
	0xbd, 0x48, 0x1d, 0xbe, 0xfc, 0xd6, 0xb6, 0xbd, 0x25, 0xb9, 0xae, 0xbe, 
	0x8d, 0x6e, 0x1f, 0xbe, 0xb1, 0xb8, 0x45, 0xbe, 0x9f, 0x70, 0x82, 0xbe, 
	0x66, 0xcd, 0x84, 0xbe, 0x07, 0x91, 0x38, 0xbe, 0x6c, 0xbb, 0xe8, 0x3d, 
	0xbb, 0x9e, 0x73, 0xbe, 0x8d, 0x01, 0xe6, 0xbd, 0x39, 0x37, 0x24, 0xbe, 
	0xed, 0x85, 0x6d, 0xbf, 0xae, 0xb5, 0xbc, 0xbd, 0x1e, 0x9d, 0x96, 0xbe, 
	0x2d, 0x80, 0x04, 0xbf, 0xdd, 0x9b, 0xc3, 0x3d, 0xc1, 0x7a, 0xa6, 0xbd, 
	0x04, 0xae, 0x8b, 0xbe, 0x02, 0x90, 0xf0, 0xbc, 0xe6, 0x89, 0x98, 0x3e, 
	0x48, 0x50, 0xcb, 0x3c, 0xbc, 0xd8, 0x8b, 0x3d, 0xe9, 0xa9, 0x44, 0xbe, 
	0x05, 0x99, 0xc2, 0x3c, 0x04, 0x9d, 0x0e, 0x3e, 0x31, 0x21, 0xb6, 0x3d, 
	0xd0, 0x54, 0x2c, 0x3d, 0xa8, 0x52, 0x8c, 0x3e, 0x45, 0x94, 0x3b, 0x3d, 
	0xd5, 0xa3, 0x38, 0x3e, 0x2e, 0xdc, 0xbd, 0x3d, 0x8b, 0x4b, 0x1b, 0xbd, 
	0xe3, 0x83, 0xe9, 0x3d, 0x72, 0xc1, 0x5f, 0x3e, 0x63, 0x10, 0xde, 0x3d, 
	0x45, 0x67, 0x5a, 0x3d, 0xb2, 0x7b, 0x14, 0x3e, 0x1d, 0x43, 0x4a, 0x3e, 
	0x34, 0x83, 0xc2, 0x3d, 0xb3, 0x3b, 0x18, 0xbd, 0xa2, 0xba, 0x31, 0x3e, 
	0xed, 0x5f, 0x11, 0xbd, 0x82, 0x7c, 0x89, 0x3d, 0x1c, 0x66, 0x3a, 0x3e, 
	0x31, 0x7d, 0x65, 0x3c, 0xc1, 0x39, 0x38, 0x3d, 0x4d, 0xa6, 0x3f, 0x3e, 
	0x77, 0x30, 0xe1, 0xbe, 0xfb, 0x20, 0xbb, 0x3d, 0x1c, 0x77, 0xa5, 0xbe, 
	0x3f, 0x9c, 0x5a, 0x3c, 0x6f, 0x76, 0x98, 0x3e, 0xcf, 0xc5, 0xd2, 0xbd, 
	0x11, 0xaa, 0xdc, 0x3d, 0xc9, 0x82, 0x66, 0x3d, 0x7e, 0x9e, 0x24, 0xbf, 
	0xca, 0x5b, 0x8b, 0xbe, 0x0e, 0xd4, 0x60, 0xbe, 0xf5, 0xe3, 0x75, 0xbd, 
	0xc4, 0x43, 0x78, 0xbe, 0x43, 0xab, 0x5d, 0xbd, 0x81, 0x25, 0x0e, 0xbe, 
	0x60, 0xe9, 0x09, 0x3e, 0x3b, 0xda, 0x5e, 0xbe, 0x0c, 0x25, 0x86, 0xbd, 
	0x9d, 0x1d, 0xa5, 0xbd, 0x0a, 0x97, 0x3a, 0x3e, 0xc5, 0xd7, 0x2c, 0xbe, 
	0xed, 0x2f, 0xb2, 0x3d, 0xa2, 0x10, 0xe6, 0xbc, 0xce, 0xe0, 0x14, 0xbe, 
	0x43, 0x4f, 0x36, 0x3c, 0x88, 0xe8, 0x6c, 0xbd, 0xaa, 0x17, 0x35, 0x3c, 
	0xc6, 0x98, 0x2b, 0x3e, 0xda, 0xdd, 0xa2, 0xbd, 0xc8, 0x3f, 0x26, 0x3e, 
	0x14, 0xda, 0xc7, 0x3b, 0xea, 0x74, 0x5b, 0xbe, 0x61, 0x15, 0x4e, 0xbc, 
	0xba, 0x3f, 0x9e, 0x3c, 0xba, 0x31, 0x41, 0x3e, 0xd8, 0xa7, 0x38, 0xbd, 
	0xf5, 0xca, 0x17, 0xbe, 0x15, 0x48, 0xb7, 0x3d, 0x2d, 0xc8, 0x04, 0xbc, 
	0xcb, 0x6b, 0xe6, 0x3e, 0x17, 0x57, 0xd4, 0x3d, 0x56, 0x25, 0x1d, 0x3e, 
	0xe2, 0x6c, 0x1d, 0xbf, 0xa4, 0x3a, 0xd1, 0xbe, 0x71, 0x35, 0xd2, 0x3d, 
	0xdd, 0x44, 0x05, 0xbf, 0x74, 0x64, 0x91, 0xbe, 0xac, 0xfb, 0xe9, 0x3e, 
	0xa7, 0xc9, 0xae, 0xbd, 0xed, 0x74, 0x89, 0xbe, 0x40, 0x36, 0x1d, 0xbf, 
	0x4d, 0x51, 0x66, 0xbe, 0xb2, 0x79, 0xc7, 0xbe, 0x9a, 0x93, 0x54, 0xbe, 
	0xce, 0x19, 0x57, 0xbe, 0x5e, 0x0a, 0x44, 0x3e, 0x5f, 0xf4, 0x8d, 0x3d, 
	0x24, 0x04, 0x01, 0xbe, 0x96, 0x65, 0x02, 0xbf, 0x06, 0xf2, 0x08, 0x3e, 
	0xda, 0x17, 0x8b, 0xbe, 0xde, 0x3e, 0xd7, 0x3d, 0xcb, 0xf9, 0x3b, 0xbe, 
	0x25, 0x97, 0xd2, 0x3e, 0xa5, 0x26, 0x4d, 0x3e, 0x83, 0xfe, 0xd9, 0xbc, 
	0x3f, 0x64, 0xae, 0xbe, 0x0c, 0x7e, 0xd6, 0x3c, 0xb0, 0xef, 0x80, 0xbe, 
	0x84, 0xbc, 0xb5, 0xbd, 0x1a, 0xfa, 0xb2, 0xbe, 0x28, 0x2e, 0x25, 0x3e, 
	0x81, 0xd1, 0x87, 0x3d, 0xfb, 0x37, 0xc9, 0xbe, 0xdb, 0xb2, 0x88, 0xbe, 
	0x2b, 0x1f, 0x44, 0xbe, 0x75, 0xac, 0xbd, 0xbe, 0x07, 0x3c, 0xbd, 0xbe, 
	0x65, 0x2e, 0x1b, 0xbf, 0x53, 0xc4, 0x2d, 0xbe, 0xfb, 0xab, 0x2f, 0xbe, 
	0x57, 0xc7, 0xfc, 0xbe, 0x3e, 0x75, 0xe5, 0xbe, 0x72, 0xa6, 0x0e, 0x3e, 
	0x57, 0x75, 0xc9, 0xbe, 0x0a, 0xac, 0x09, 0xbd, 0x68, 0xbc, 0x8b, 0xbe, 
	0xc3, 0x0e, 0x88, 0x3e, 0x08, 0xf8, 0xda, 0x3d, 0x13, 0x2d, 0x1f, 0xbe, 
	0x30, 0xa1, 0x51, 0xbf, 0x02, 0x0a, 0xf1, 0xbd, 0xda, 0x31, 0x58, 0x3e, 
	0x21, 0x3b, 0x7d, 0xbe, 0x01, 0xad, 0x72, 0x3d, 0x0c, 0x64, 0x2a, 0x3e, 
	0x6c, 0x35, 0x61, 0xbf, 0x88, 0xdf, 0x29, 0xbe, 0xe9, 0x17, 0xb0, 0xbe, 
	0x98, 0x0c, 0x57, 0x3d, 0x90, 0xa8, 0x3e, 0xbc, 0x2e, 0xf4, 0xf9, 0x3d, 
	0x6c, 0xa4, 0x47, 0xbe, 0x2b, 0xb6, 0xa2, 0x3d, 0xef, 0x9b, 0x12, 0xbe, 
	0xe2, 0x9f, 0xf7, 0xbd, 0x0f, 0x4a, 0x70, 0xbe, 0xa3, 0x97, 0xfc, 0x3c, 
	0xda, 0x38, 0x2b, 0x3d, 0x55, 0xcb, 0x50, 0xbc, 0x06, 0x79, 0x91, 0xbb, 
	0x3c, 0xb7, 0x14, 0x3e, 0xb6, 0x2c, 0x44, 0xbe, 0xb5, 0x51, 0xe8, 0x3c, 
	0xb3, 0xbe, 0x78, 0xbe, 0x25, 0x60, 0xcf, 0xbd, 0xb6, 0x21, 0xb4, 0x3c, 
	0x91, 0x23, 0x86, 0xbe, 0x4b, 0x98, 0xf4, 0x3d, 0x78, 0x1c, 0x2a, 0x3e, 
	0x39, 0x44, 0x74, 0xbe, 0x69, 0x7d, 0xb0, 0xbd, 0x10, 0xe7, 0xb5, 0xbe, 
	0x6d, 0x61, 0x9f, 0x3b, 0x76, 0x84, 0x4c, 0xbe, 0x4a, 0x31, 0x72, 0xbd, 
	0x1c, 0xb3, 0x80, 0x3c, 0xc6, 0x2c, 0x10, 0x3e, 0x52, 0xd1, 0x51, 0xbe, 
	0x2d, 0x25, 0x47, 0xbe, 0x53, 0x66, 0x81, 0xbe, 0xad, 0xb2, 0xbd, 0x3d, 
	0x96, 0x38, 0xa2, 0x3d, 0xa1, 0x09, 0x96, 0x3d, 0x0e, 0xb5, 0x3b, 0xbe, 
	0x9f, 0xbc, 0x8d, 0xbc, 0x03, 0x5d, 0x12, 0xbf, 0xfc, 0xee, 0x28, 0x3e, 
	0x2e, 0x35, 0xf9, 0xbd, 0x4c, 0x6c, 0x24, 0x3e, 0x49, 0xf8, 0x8a, 0x3c, 
	0x6d, 0xec, 0x7e, 0x3e, 0xd2, 0xb6, 0x95, 0x3e, 0x6c, 0xac, 0x17, 0xbe, 
	0xd5, 0x27, 0x14, 0xbe, 0xf0, 0xff, 0xef, 0x3c, 0x26, 0xd3, 0x15, 0x3b, 
	0x5e, 0xa9, 0x16, 0x3e, 0xfa, 0x8b, 0xb2, 0xbd, 0x84, 0x55, 0xc2, 0x3d, 
	0x59, 0x08, 0x30, 0x3d, 0x85, 0x1f, 0xd0, 0xbd, 0x9d, 0x70, 0x2b, 0x3e, 
	0xc5, 0x20, 0xd9, 0xbd, 0xbe, 0x86, 0xf4, 0xbd, 0xa1, 0xa3, 0x05, 0xbd, 
	0x4a, 0x7b, 0xc8, 0xbe, 0x94, 0x66, 0x31, 0xbd, 0xf6, 0xa5, 0xf0, 0xbd, 
	0xad, 0x8f, 0x64, 0xbe, 0x18, 0x09, 0x1d, 0xbc, 0x09, 0xda, 0x2c, 0x3e, 
	0xe9, 0x17, 0x6c, 0xbe, 0x55, 0x55, 0xf5, 0xbd, 0x4d, 0x6a, 0x99, 0xbd, 
	0x40, 0x14, 0x59, 0xbd, 0x1f, 0x53, 0x1b, 0xbd, 0xe5, 0x44, 0xf2, 0xbd, 
	0x19, 0x50, 0x9a, 0x3c, 0xf2, 0xc8, 0xcd, 0x3d, 0x9c, 0x6a, 0xb7, 0xbc, 
	0xf9, 0x3e, 0xff, 0x3d, 0x55, 0x62, 0xd1, 0x3d, 0x10, 0x71, 0x8a, 0x3d, 
	0x51, 0x14, 0xdb, 0xbd, 0x36, 0x7c, 0x47, 0xbd, 0x4f, 0x06, 0x70, 0xbc, 
	0x23, 0xa6, 0x2f, 0x3e, 0xa8, 0x5d, 0x33, 0xbd, 0xc7, 0xf4, 0x8d, 0x3e, 
	0x9f, 0xd9, 0x57, 0x3e, 0xa3, 0x7f, 0x80, 0x3e, 0x62, 0xd6, 0x65, 0x3e, 
	0x06, 0xfb, 0x9c, 0x3c, 0x5a, 0x4b, 0xca, 0xbe, 0x3a, 0xde, 0x2b, 0x3e, 
	0x7c, 0x17, 0x08, 0x3e, 0xa3, 0x4a, 0x2a, 0x3e, 0x4e, 0xb6, 0xdf, 0x3d, 
	0x14, 0x5d, 0xbf, 0x3e, 0xdd, 0x66, 0x65, 0x3e, 0x5b, 0x2d, 0xb9, 0x3d, 
	0x1a, 0x4d, 0xa9, 0x3e, 0xb6, 0xf5, 0xe2, 0x3d, 0x95, 0xeb, 0x67, 0xbd, 
	0xc1, 0x38, 0x79, 0xbd, 0xfa, 0xf2, 0x3d, 0x3d, 0x9f, 0x54, 0x59, 0x3e, 
	0x2d, 0x48, 0x39, 0x3e, 0xc4, 0xc9, 0x26, 0x3d, 0x48, 0x75, 0x44, 0xbe, 
	0xae, 0x96, 0xcd, 0xbd, 0x57, 0xc5, 0x7c, 0xbe, 0xb1, 0x6d, 0xb8, 0xbd, 
	0x4c, 0x39, 0x12, 0x3c, 0x68, 0x83, 0x68, 0xbd, 0x6d, 0x88, 0xa7, 0x3d, 
	0x1e, 0xe8, 0xb8, 0x3c, 0x8b, 0x2b, 0xa3, 0xbe, 0xc8, 0xb3, 0xae, 0xbb, 
	0x0a, 0xab, 0xe4, 0xbd, 0xcb, 0x2e, 0x92, 0x3e, 0x4a, 0x61, 0x14, 0xbc, 
	0xd8, 0xf9, 0xdd, 0x3c, 0x66, 0x6a, 0xaf, 0x3d, 0x98, 0x68, 0x01, 0xbe, 
	0x61, 0x40, 0x0f, 0xbc, 0xab, 0xd8, 0x49, 0xbc, 0x4f, 0x39, 0xa5, 0x3d, 
	0x19, 0x35, 0x8d, 0x3e, 0xc4, 0xec, 0xd8, 0xbe, 0xda, 0x09, 0x00, 0x3e, 
	0x21, 0xaa, 0xbc, 0xbd, 0x58, 0x95, 0x0d, 0xbe, 0xcb, 0x51, 0x9a, 0x3d, 
	0x95, 0xcf, 0x80, 0x3e, 0x1b, 0x55, 0xde, 0x3d, 0x47, 0xf5, 0xf6, 0x3d, 
	0x75, 0x74, 0x1e, 0x3e, 0x26, 0xc1, 0x39, 0x3d, 0x43, 0xf8, 0x9a, 0x3e, 
	0xa5, 0xc2, 0x81, 0xbe, 0x90, 0x19, 0xa0, 0xbe, 0x9c, 0x7f, 0xd0, 0x3e, 
	0xd2, 0xcd, 0xb6, 0x3e, 0x61, 0x91, 0x59, 0x3e, 0xba, 0x5c, 0x6a, 0x3e, 
	0xa0, 0x15, 0x95, 0x3e, 0xe7, 0xfd, 0x3a, 0x3e, 0x82, 0x7b, 0x7d, 0x3e, 
	0x4b, 0x25, 0x53, 0x3e, 0x37, 0x0e, 0x8f, 0xbd, 0x83, 0x23, 0xc3, 0x3d, 
	0xd5, 0x3b, 0x3f, 0x3c, 0xcc, 0x12, 0x32, 0x3d, 0xf5, 0x1f, 0x56, 0x3d, 
	0x02, 0x6a, 0x68, 0x3d, 0xb5, 0xa4, 0x99, 0xbe, 0xad, 0x46, 0x1b, 0xbf, 
	0x08, 0x09, 0x85, 0xbc, 0xd1, 0x78, 0x0b, 0x3e, 0xd2, 0x93, 0xc3, 0xbc, 
	0x02, 0x31, 0xa0, 0x3e, 0xb8, 0x81, 0x24, 0x3d, 0x56, 0x30, 0xa9, 0x3e, 
	0xce, 0x6c, 0x22, 0xbe, 0xb7, 0xcb, 0x42, 0xbe, 0x11, 0x2a, 0x4f, 0x3e, 
	0x71, 0xbc, 0x1b, 0x3e, 0x44, 0x01, 0xd0, 0x3d, 0xad, 0x1f, 0x09, 0x3e, 
	0x46, 0x6b, 0x5f, 0x3d, 0xfe, 0x34, 0x28, 0xbd, 0xc4, 0x52, 0x57, 0xbe, 
	0x2e, 0x8b, 0x40, 0x3e, 0xc6, 0xd1, 0x41, 0xbd, 0x46, 0x34, 0x6b, 0x3e, 
	0x4b, 0xde, 0x16, 0xbe, 0x96, 0x56, 0xa9, 0xbe, 0x65, 0x3e, 0x8a, 0x3d, 
	0x30, 0x48, 0x75, 0xbe, 0x44, 0x9d, 0xfe, 0xbd, 0x91, 0x21, 0xbb, 0xbd, 
	0x92, 0xf1, 0x33, 0x3d, 0x30, 0x36, 0x40, 0x3e, 0xe2, 0xe8, 0x8d, 0xbe, 
	0xe6, 0x7f, 0x7c, 0x3d, 0x0e, 0xc7, 0xd4, 0xbe, 0xc1, 0x6e, 0xb9, 0x3e, 
	0x9c, 0x5d, 0x9d, 0xbe, 0xe7, 0x16, 0xaa, 0x3e, 0x10, 0x2d, 0xdf, 0x3e, 
	0xa2, 0x50, 0x00, 0x3e, 0x83, 0x64, 0x15, 0x3e, 0xab, 0x8e, 0x42, 0x3e, 
	0x98, 0x50, 0x47, 0x3d, 0x70, 0x87, 0x3c, 0xbe, 0x72, 0x06, 0x0a, 0xbf, 
	0x9b, 0x94, 0xce, 0x3e, 0x66, 0xc2, 0x85, 0xbd, 0x1a, 0xdf, 0xba, 0x3e, 
	0xa3, 0x46, 0xd4, 0xbe, 0x17, 0xab, 0x18, 0xbf, 0xf2, 0x53, 0x2e, 0xbe, 
	0xc4, 0xc7, 0x8c, 0xbe, 0x19, 0x48, 0x56, 0xbf, 0xae, 0xb6, 0xc4, 0x3c, 
	0x08, 0xb8, 0x1e, 0x3b, 0xad, 0x28, 0xa9, 0x3e, 0xa3, 0x05, 0x62, 0xbe, 
	0x54, 0x2c, 0x5d, 0x3d, 0xf3, 0x50, 0x08, 0x3e, 0x80, 0x81, 0x16, 0x3e, 
	0x8e, 0xf4, 0xb0, 0xbe, 0xdc, 0x58, 0x6e, 0x3e, 0x94, 0x62, 0x95, 0x3e, 
	0xa2, 0x72, 0x6d, 0x3d, 0xff, 0x77, 0x56, 0xbd, 0x76, 0x20, 0x88, 0xbc, 
	0xa4, 0xcc, 0x61, 0xbd, 0x4e, 0xa4, 0x87, 0xbe, 0xb1, 0x00, 0xdb, 0xbe, 
	0x5f, 0xa6, 0x78, 0x3e, 0x55, 0x57, 0x1c, 0xbe, 0x2a, 0x24, 0x8c, 0x3e, 
	0x04, 0x53, 0xe9, 0xbe, 0x2d, 0xe3, 0x14, 0xbf, 0xf8, 0x0d, 0x54, 0xbe, 
	0x6e, 0x13, 0xbe, 0xbe, 0x65, 0x8f, 0x09, 0xbf, 0x5f, 0x61, 0xcc, 0x3b, 
	0x4a, 0x32, 0x84, 0xbc, 0xbe, 0xa2, 0xfe, 0xbd, 0x6d, 0x7b, 0x1b, 0xbf, 
	0xe9, 0x1b, 0x9d, 0xbc, 0x4f, 0xb1, 0x84, 0xbe, 0xb6, 0x4c, 0x80, 0xbe, 
	0xca, 0xe1, 0x30, 0xbf, 0xfa, 0x3e, 0x80, 0xbd, 0x69, 0xe4, 0x87, 0x3e, 
	0x33, 0xa0, 0x42, 0x3e, 0x57, 0xce, 0x98, 0x3d, 0x92, 0xc0, 0x85, 0xbe, 
	0x65, 0xf8, 0xbe, 0x3d, 0x7c, 0x11, 0xbb, 0x3b, 0x88, 0xb7, 0xbe, 0xbc, 
	0x14, 0x0c, 0x13, 0xbf, 0x17, 0x65, 0x7f, 0x3e, 0x31, 0xe0, 0xaf, 0xbe, 
	0xb0, 0x4a, 0x5a, 0x3e, 0xa1, 0x8e, 0x1d, 0x3e, 0x75, 0x04, 0x40, 0x3e, 
	0x07, 0x78, 0x23, 0x3e, 0xcf, 0x1d, 0x22, 0xbd, 0xad, 0x6a, 0x76, 0x3c, 
	0x52, 0x36, 0x45, 0xbd, 0xc1, 0xc8, 0x96, 0x3d, 0xd3, 0xaf, 0x8d, 0xbc, 
	0xe8, 0x81, 0x83, 0xbe, 0xeb, 0xcd, 0x93, 0x3d, 0x81, 0xe5, 0x61, 0xbe, 
	0xd4, 0x89, 0xe9, 0xbe, 0x25, 0xdb, 0x23, 0x3e, 0x45, 0x92, 0xf3, 0xbd, 
	0xd0, 0x8d, 0xbc, 0x3e, 0xe8, 0xed, 0xe0, 0x3d, 0xad, 0x09, 0x40, 0xbe, 
	0xb4, 0x4c, 0x97, 0x3e, 0xf1, 0xcb, 0xfd, 0xbd, 0x5f, 0x46, 0xdc, 0xbe, 
	0xf8, 0xa3, 0x88, 0x3e, 0x58, 0x1a, 0x2e, 0x3e, 0x8b, 0x88, 0x99, 0x3e, 
	0x8a, 0x39, 0x08, 0xbe, 0xed, 0x75, 0xb0, 0x3d, 0x44, 0x8f, 0x08, 0x3d, 
	0x18, 0xab, 0x66, 0x3e, 0x88, 0x2e, 0x1a, 0xbe, 0xc1, 0x4e, 0x50, 0x3e, 
	0xa2, 0x7c, 0xb9, 0x3e, 0x06, 0x6d, 0x61, 0x3e, 0x80, 0x42, 0xac, 0xbe, 
	0x75, 0xc7, 0x9c, 0x3e, 0x27, 0x40, 0x83, 0xbe, 0x84, 0x5d, 0x91, 0x3e, 
	0x9c, 0x52, 0x5f, 0xbe, 0xa3, 0x69, 0x32, 0xbf, 0xf6, 0x6e, 0x9f, 0x3d, 
	0xf0, 0x64, 0x7a, 0xbe, 0xef, 0xc1, 0x38, 0x3e, 0xfa, 0xf4, 0x4e, 0xbe, 
	0x45, 0x7e, 0x54, 0x3e, 0x4c, 0xca, 0x27, 0x3c, 0x3e, 0x08, 0x43, 0x3e, 
	0x76, 0x88, 0xaf, 0xbe, 0xea, 0xa9, 0x46, 0x3e, 0x63, 0x16, 0x87, 0xbd, 
	0x19, 0x1c, 0xac, 0xbc, 0x31, 0x1c, 0xd8, 0x3d, 0x2e, 0x16, 0x3d, 0x3e, 
	0xd4, 0x4a, 0x39, 0x3d, 0x6c, 0x5b, 0x2b, 0xbd, 0xfb, 0x4a, 0xcf, 0xbc, 
	0x48, 0x86, 0x95, 0xbd, 0xa7, 0x21, 0x7a, 0xbb, 0x20, 0x13, 0x39, 0xbe, 
	0x79, 0x9d, 0x8e, 0xbe, 0xe0, 0x19, 0x7b, 0xbd, 0x0d, 0xbd, 0xec, 0xbd, 
	0x2e, 0x72, 0x2f, 0xbe, 0x3b, 0xd4, 0x4f, 0x3d, 0xcb, 0xb0, 0x49, 0xbd, 
	0x49, 0x51, 0x52, 0x3e, 0xea, 0xcc, 0x11, 0xbe, 0x6b, 0x8a, 0x04, 0xbf, 
	0x95, 0x09, 0x0a, 0x3d, 0xb2, 0x88, 0x44, 0xbe, 0x1d, 0xdf, 0x72, 0xbd, 
	0xf6, 0x09, 0x64, 0x3e, 0xe3, 0x71, 0x05, 0xbc, 0xc2, 0x85, 0x35, 0xbe, 
	0x00, 0x02, 0x5f, 0xbe, 0xf7, 0xb0, 0x20, 0xbf, 0xa2, 0x54, 0xa4, 0xba, 
	0x51, 0x44, 0xdc, 0xbe, 0x6f, 0x49, 0xda, 0xbe, 0x41, 0x9a, 0x6d, 0x3e, 
	0xdf, 0xf2, 0x75, 0x3c, 0x85, 0x00, 0x9d, 0xbe, 0xca, 0x99, 0x12, 0xbf, 
	0x87, 0x73, 0x49, 0xbe, 0x70, 0xa5, 0x76, 0xbe, 0x69, 0xb2, 0xf0, 0xbe, 
	0xec, 0x13, 0xc1, 0xbe, 0x0e, 0x6f, 0x21, 0xbf, 0x86, 0x35, 0xcc, 0x3d, 
	0xf1, 0xf9, 0xe7, 0x3d, 0x69, 0x6d, 0x87, 0x3e, 0x86, 0x1c, 0x49, 0xbd, 
	0xd7, 0x6f, 0x70, 0x3e, 0x13, 0x33, 0x3f, 0x3e, 0x38, 0x93, 0x58, 0x3d, 
	0x75, 0x45, 0xc3, 0xbe, 0xfd, 0xdb, 0xf4, 0x3d, 0xbc, 0xdf, 0xe8, 0x3d, 
	0xc3, 0x71, 0x08, 0xbd, 0xf0, 0x20, 0x0d, 0x3e, 0xc6, 0x9b, 0x4e, 0xbc, 
	0x94, 0x20, 0x66, 0x3d, 0xf7, 0x42, 0x00, 0x3e, 0x07, 0xec, 0x59, 0x3e, 
	0x26, 0x1c, 0x82, 0x3c, 0x4b, 0x0e, 0x9a, 0x3d, 0x84, 0xee, 0x39, 0xbe, 
	0x8d, 0x34, 0x85, 0x3d, 0x90, 0x54, 0x59, 0xbd, 0x8a, 0xc5, 0x9a, 0x3d, 
	0x4d, 0xb3, 0x62, 0x3e, 0x3c, 0x0e, 0x29, 0xbd, 0x43, 0x5e, 0x0e, 0xbd, 
	0xd1, 0xb3, 0xd1, 0x3d, 0x97, 0xfa, 0x1f, 0xbe, 0xc4, 0x94, 0xbd, 0x3d, 
	0xf1, 0x72, 0x6e, 0xbe, 0x43, 0x55, 0x66, 0x3b, 0xf6, 0x2e, 0xc2, 0x3e, 
	0xd4, 0x77, 0x4a, 0xbe, 0x07, 0x3d, 0x6d, 0xbe, 0x0c, 0x85, 0x02, 0xbf, 
	0xdd, 0x52, 0x2e, 0xbe, 0xf9, 0x9a, 0xe6, 0x3d, 0x89, 0xe0, 0x95, 0xbe, 
	0x7b, 0xfb, 0x68, 0x3d, 0x46, 0xef, 0x8e, 0x3e, 0x7e, 0x5e, 0xb4, 0xbe, 
	0x2b, 0x57, 0xda, 0xbe, 0x03, 0x3e, 0xf8, 0xbe, 0x92, 0xf2, 0x03, 0x3e, 
	0xb1, 0xa4, 0xd7, 0xbd, 0xe0, 0xda, 0x1c, 0xbd, 0x01, 0x51, 0xcd, 0xbe, 
	0x33, 0xd9, 0xa9, 0xbe, 0x11, 0xec, 0xd5, 0xbd, 0x8d, 0xf5, 0x0d, 0x3d, 
	0xc1, 0xf9, 0x4e, 0x3e, 0xc4, 0xa2, 0x48, 0x3e, 0xb4, 0xbf, 0x1f, 0xbe, 
	0x01, 0xfd, 0xfd, 0x3d, 0xf7, 0x3d, 0xb2, 0xbd, 0xe9, 0x60, 0xa8, 0x3d, 
	0xd2, 0x2e, 0x5a, 0x3c, 0x75, 0x86, 0xe2, 0xbc, 0x85, 0xe2, 0xb7, 0x3d, 
	0xde, 0x82, 0x9d, 0xbd, 0xe0, 0xa8, 0xda, 0xbd, 0xdb, 0x1a, 0x0c, 0x3d, 
	0x9b, 0x54, 0x82, 0x3d, 0xf5, 0xc8, 0x2c, 0xbd, 0x1d, 0x9a, 0x80, 0xbd, 
	0x09, 0xa9, 0x2d, 0x3e, 0x50, 0x4d, 0xab, 0xbd, 0x43, 0xf5, 0x3d, 0xbe, 
	0x43, 0xca, 0x47, 0xbe, 0x3e, 0xfe, 0x93, 0xbe, 0x50, 0x24, 0xd1, 0xbd, 
	0xe6, 0xbb, 0x74, 0x3e, 0x58, 0x79, 0x69, 0xbd, 0xf5, 0xbc, 0x6a, 0xbd, 
	0xfa, 0x3b, 0x1f, 0xbe, 0xc8, 0x01, 0x55, 0xbd, 0x9f, 0x95, 0x3a, 0xbe, 
	0x94, 0x0c, 0x04, 0xbc, 0x72, 0x97, 0xc0, 0xbc, 0x91, 0x37, 0x62, 0xbc, 
	0x95, 0x1e, 0x9f, 0xbe, 0x72, 0xd7, 0xca, 0x3d, 0x26, 0xad, 0xa4, 0xbe, 
	0x1f, 0x4e, 0x99, 0x3d, 0x65, 0xf2, 0x89, 0x3d, 0x92, 0xbb, 0x03, 0x3e, 
	0x3b, 0x32, 0x12, 0x3d, 0xf9, 0x42, 0xc7, 0x3d, 0xe8, 0x6f, 0x80, 0xbd, 
	0x17, 0x8b, 0x04, 0x3e, 0xb5, 0x3a, 0x5d, 0xbd, 0xdb, 0xd3, 0x07, 0x3d, 
	0x7e, 0x26, 0x81, 0x3e, 0xcf, 0xd3, 0x9f, 0x3d, 0x14, 0xed, 0x1b, 0xbd, 
	0xdc, 0xeb, 0x1a, 0x3e, 0x4d, 0x8b, 0xbd, 0x3d, 0xe3, 0xd8, 0x8f, 0x3d, 
	0xb1, 0xcc, 0xd3, 0xbd, 0x5b, 0x24, 0x58, 0xbe, 0x44, 0x9c, 0x28, 0xbe, 
	0xd3, 0x36, 0x09, 0xbe, 0xc9, 0xf7, 0xb2, 0xbd, 0xac, 0x6e, 0x8e, 0x3d, 
	0x49, 0x35, 0xf7, 0x3d, 0xa2, 0x56, 0xd1, 0xbd, 0xfd, 0xc3, 0x9b, 0xbd, 
	0x57, 0x21, 0x7d, 0xbd, 0xed, 0x11, 0xa2, 0xbe, 0x20, 0x09, 0x96, 0xbd, 
	0xac, 0x77, 0x8d, 0xbe, 0x89, 0x04, 0xc8, 0xbd, 0xd2, 0x11, 0x8f, 0x3d, 
	0xcd, 0x23, 0x0e, 0xbe, 0xe7, 0x30, 0x34, 0xbe, 0x6a, 0xa9, 0xbf, 0xbe, 
	0xef, 0xba, 0xdb, 0x3b, 0x89, 0xe1, 0x98, 0xbe, 0xd9, 0x48, 0x11, 0x3d, 
	0x7c, 0xdd, 0x8a, 0x3d, 0xd9, 0xb9, 0x13, 0xbf, 0xe5, 0x70, 0x23, 0xbe, 
	0x77, 0xf5, 0x3a, 0xbe, 0x97, 0x01, 0x18, 0x3e, 0x50, 0x67, 0x35, 0xbd, 
	0xef, 0x5d, 0xf9, 0x3c, 0x33, 0xc6, 0xc4, 0xbc, 0xb4, 0x64, 0x2d, 0xbe, 
	0x2c, 0x59, 0x7b, 0xbd, 0x3b, 0x40, 0x2c, 0xbd, 0x30, 0x00, 0x65, 0x3e, 
	0x3a, 0x77, 0xae, 0x3d, 0xd9, 0x48, 0x1a, 0x3c, 0x11, 0xd2, 0x72, 0xbd, 
	0x94, 0xb6, 0x86, 0x3d, 0x97, 0x27, 0x3c, 0xbe, 0x88, 0xa5, 0xa1, 0xbc, 
	0xdc, 0x03, 0xc1, 0x3c, 0x32, 0x41, 0xe0, 0x3c, 0xf2, 0xbc, 0x78, 0xbe, 
	0xa4, 0x38, 0xf9, 0x3e, 0x58, 0xa9, 0x19, 0xbe, 0x51, 0x60, 0x91, 0x3e, 
	0xcb, 0x7f, 0xaf, 0x3d, 0x81, 0x4d, 0x37, 0xbc, 0x38, 0xd7, 0xac, 0x3e, 
	0x48, 0x18, 0x1d, 0xbf, 0x3d, 0x05, 0x84, 0xbe, 0x71, 0x4a, 0x37, 0x3e, 
	0xd3, 0x4d, 0xcf, 0xbe, 0x44, 0x78, 0x77, 0x3e, 0x4f, 0x22, 0xcf, 0x3e, 
	0xdf, 0xcb, 0xaf, 0xbe, 0x29, 0x9c, 0xb1, 0x3d, 0xee, 0x08, 0x0b, 0xbf, 
	0xb7, 0x11, 0x27, 0xbd, 0xa5, 0xd1, 0x1a, 0x3b, 0xef, 0xf4, 0x54, 0xbe, 
	0xf9, 0xad, 0x3a, 0xbe, 0xd1, 0x4d, 0x7e, 0xbd, 0x96, 0x9e, 0x25, 0x3e, 
	0xec, 0x4e, 0x92, 0xbe, 0xe0, 0x85, 0x06, 0x3e, 0x16, 0x16, 0x49, 0x3e, 
	0xc0, 0xb7, 0xcd, 0xbe, 0x96, 0x87, 0xc0, 0x3d, 0x85, 0xec, 0xb1, 0xbe, 
	0x5d, 0x94, 0xb3, 0xbe, 0xac, 0x32, 0x4a, 0x3e, 0x3e, 0xb8, 0x84, 0xbc, 
	0x21, 0xec, 0x11, 0x3e, 0x51, 0x89, 0x15, 0xbd, 0xf6, 0xaa, 0x14, 0xbe, 
	0xa6, 0x37, 0x3a, 0x3e, 0x6b, 0x4a, 0x8b, 0xbe, 0xfb, 0x0e, 0x93, 0xbe, 
	0xfb, 0x77, 0xc7, 0xbd, 0x7b, 0x49, 0xa2, 0x3c, 0x5f, 0xa7, 0x74, 0x3e, 
	0x12, 0xfe, 0x0e, 0xbe, 0xbc, 0xa7, 0xaa, 0xbd, 0x88, 0x41, 0xda, 0xbd, 
	0x4c, 0xe5, 0x94, 0xbc, 0x1a, 0x50, 0x25, 0xbe, 0xf9, 0xd3, 0xad, 0x3d, 
	0x51, 0x84, 0x35, 0xbe, 0x24, 0x21, 0xfa, 0x3d, 0xd3, 0x28, 0xbf, 0xbe, 
	0xb1, 0xf4, 0xea, 0x3d, 0xed, 0x6a, 0xd5, 0xbe, 0x37, 0x9e, 0xfe, 0x3d, 
	0xba, 0xfe, 0xa3, 0x3c, 0xea, 0x73, 0xb7, 0x3d, 0xb1, 0x06, 0x99, 0xbe, 
	0xfc, 0x94, 0xf2, 0xbe, 0x38, 0x1d, 0xbc, 0xbe, 0xd1, 0x32, 0x52, 0xbc, 
	0x57, 0xe0, 0xd4, 0xbe, 0xd2, 0xd6, 0x8d, 0xbd, 0xfa, 0xd9, 0x04, 0x3e, 
	0x73, 0x33, 0xd1, 0xbe, 0x34, 0xa0, 0xad, 0xbe, 0xcf, 0xe2, 0x1b, 0xbf, 
	0x15, 0xd9, 0xf9, 0x3c, 0x49, 0x66, 0x2e, 0xbe, 0x91, 0x60, 0x08, 0xbc, 
	0x00, 0x01, 0xe2, 0x3c, 0x4f, 0xf3, 0x5a, 0xbe, 0x1c, 0xe9, 0xf1, 0xbc, 
	0x12, 0x55, 0xa0, 0x3c, 0xe0, 0xf3, 0x14, 0xbe, 0x2c, 0x1e, 0x9d, 0xbc, 
	0x5f, 0x06, 0x1f, 0xbe, 0xc8, 0x95, 0xae, 0xbd, 0xe0, 0x94, 0x0b, 0xbe, 
	0x18, 0xb3, 0x2e, 0xbc, 0x3f, 0x03, 0xa2, 0x3e, 0x14, 0x65, 0xcd, 0xbe, 
	0xa6, 0x84, 0x14, 0x3e, 0xe5, 0x83, 0xc8, 0xbe, 0x74, 0x3a, 0x9a, 0xbe, 
	0x72, 0xff, 0x54, 0xbe, 0x47, 0x47, 0x6f, 0xbe, 0x9d, 0x0a, 0x57, 0xbe, 
	0x6d, 0xe2, 0x92, 0xbb, 0xda, 0x31, 0x6e, 0xbe, 0x60, 0x7a, 0x55, 0x3d, 
	0x54, 0x8b, 0x81, 0xbe, 0x47, 0xfa, 0x47, 0x3e, 0x16, 0x1b, 0x8f, 0xbe, 
	0xe1, 0xad, 0x18, 0xbe, 0x63, 0x63, 0x01, 0xbe, 0x30, 0x87, 0x85, 0xbe, 
	0x19, 0x5f, 0x54, 0xbe, 0xa9, 0x92, 0x8a, 0xbd, 0xbf, 0x70, 0x3c, 0xbe, 
	0xd4, 0x0b, 0x39, 0x3e, 0x42, 0xa7, 0xde, 0xbe, 0x42, 0xbb, 0xea, 0x3d, 
	0xc7, 0x1f, 0x03, 0x3d, 0x77, 0x2c, 0x23, 0xbe, 0x51, 0x52, 0x5b, 0xbe, 
	0xef, 0xfe, 0xdd, 0xbe, 0x87, 0x9e, 0x3b, 0xbe, 0x88, 0xe2, 0x9b, 0x3b, 
	0x51, 0x33, 0xc5, 0xbd, 0x38, 0x80, 0xa2, 0x3d, 0xf9, 0x40, 0x31, 0x3c, 
	0xc1, 0x73, 0xfd, 0xbe, 0x72, 0x20, 0xa8, 0x3c, 0x3d, 0x0e, 0x63, 0xbe, 
	0x0d, 0x19, 0xba, 0x3d, 0x54, 0x30, 0x89, 0x3d, 0xa4, 0x05, 0x47, 0xbd, 
	0x19, 0x83, 0x0f, 0xbe, 0xb0, 0x26, 0x88, 0x3e, 0x61, 0x5d, 0xfe, 0x3d, 
	0xcc, 0xe1, 0xb1, 0x3d, 0x75, 0x4b, 0x0a, 0xbe, 0x38, 0x18, 0x5e, 0xbd, 
	0xde, 0xcb, 0x86, 0xbd, 0x24, 0x0d, 0x86, 0xbd, 0x39, 0xeb, 0x97, 0xbe, 
	0x19, 0xfb, 0x77, 0xbd, 0xd5, 0x4d, 0xb0, 0x3e, 0x54, 0xee, 0x64, 0xbe, 
	0x2e, 0x85, 0xb4, 0xbb, 0x44, 0x4c, 0xfa, 0xbe, 0xc4, 0xee, 0x57, 0xbf, 
	0xfa, 0x36, 0xba, 0xbe, 0xb9, 0x52, 0xd6, 0xbe, 0xb5, 0xb4, 0x7e, 0xbd, 
	0xde, 0x02, 0x2d, 0xbd, 0x26, 0xe8, 0x7a, 0xbe, 0x6e, 0xe9, 0x1e, 0xbe, 
	0x4f, 0x21, 0xfe, 0xbd, 0x02, 0x76, 0x34, 0x3e, 0x68, 0x1b, 0x63, 0xbd, 
	0x70, 0xf0, 0x9b, 0xbe, 0xf8, 0xe2, 0x95, 0xbd, 0xa5, 0xf1, 0x85, 0x3d, 
	0x31, 0x0a, 0x35, 0xbe, 0x6d, 0xab, 0x63, 0xbe, 0xc5, 0x9c, 0x81, 0xbe, 
	0x3b, 0x42, 0xe6, 0x3d, 0x23, 0x57, 0x6a, 0xbd, 0xa1, 0x78, 0xf5, 0x3d, 
	0x5a, 0x83, 0x50, 0xbe, 0x22, 0xf2, 0xf0, 0xbe, 0x02, 0xfc, 0xa9, 0x3d, 
	0x51, 0x58, 0xa0, 0xbe, 0x01, 0x66, 0x50, 0x3c, 0x20, 0xf2, 0x23, 0xbe, 
	0x59, 0x38, 0x10, 0xbe, 0xbb, 0xad, 0x19, 0x3e, 0x20, 0xd5, 0x47, 0x3e, 
	0xd7, 0x5f, 0x8e, 0xbe, 0x08, 0x15, 0x17, 0x3d, 0xb0, 0x2f, 0xb4, 0xbe, 
	0xc4, 0xe6, 0x0e, 0x3e, 0x12, 0x35, 0x0d, 0xbd, 0x23, 0xcb, 0x44, 0x3e, 
	0x3d, 0xa8, 0xf7, 0x3d, 0x9d, 0x7b, 0xd0, 0x3c, 0xaf, 0x59, 0xd2, 0x3c, 
	0x89, 0x51, 0x2e, 0x3e, 0x3c, 0xd3, 0x02, 0xbe, 0x78, 0x84, 0x40, 0xbc, 
	0xb7, 0xa9, 0x3f, 0xbe, 0x2e, 0x37, 0x9d, 0x3d, 0xcc, 0x82, 0x3e, 0xbe, 
	0xfb, 0xd9, 0x2d, 0xbd, 0xb0, 0xc7, 0x57, 0x3e, 0xb9, 0xe5, 0x0f, 0xbe, 
	0x3a, 0x5a, 0x39, 0xbc, 0xb2, 0x6f, 0x39, 0xbe, 0x67, 0xff, 0x26, 0xbe, 
	0xa7, 0x7e, 0x4c, 0xbe, 0x94, 0x52, 0x8e, 0xbe, 0x3b, 0xdb, 0xdc, 0x3d, 
	0x75, 0x8d, 0x65, 0x3c, 0x92, 0x2b, 0x21, 0xbe, 0x3d, 0x85, 0xbf, 0xbe, 
	0xb5, 0xf6, 0x27, 0x3d, 0xd2, 0xae, 0xa3, 0x3d, 0xba, 0xa8, 0x3b, 0xbe, 
	0x99, 0xee, 0xc0, 0xbb, 0xbf, 0x23, 0xe4, 0x3c, 0x13, 0xc6, 0xb3, 0xbd, 
	0x50, 0x5e, 0x19, 0xbe, 0xe3, 0x19, 0x9f, 0xbe, 0xe4, 0xf5, 0x8b, 0xbd, 
	0x40, 0x18, 0xa6, 0xbd, 0x23, 0xde, 0x12, 0x3e, 0x5e, 0xd6, 0x83, 0xbe, 
	0x54, 0xd8, 0xf8, 0xbe, 0x02, 0x39, 0x0f, 0xbf, 0x3f, 0x70, 0x01, 0x3e, 
	0x6b, 0xf1, 0x35, 0xbe, 0x78, 0x40, 0x29, 0x3d, 0xaa, 0x2a, 0x8c, 0x3d, 
	0x04, 0x9f, 0x97, 0x3d, 0x2c, 0xab, 0x81, 0x3e, 0xf2, 0x4a, 0x45, 0x3e, 
	0xea, 0x73, 0x3a, 0xbf, 0x72, 0x07, 0x52, 0x3e, 0x40, 0x32, 0xee, 0xbd, 
	0xbc, 0xa2, 0x46, 0x3e, 0x5c, 0x39, 0x8d, 0x3d, 0xcd, 0x45, 0x18, 0x3e, 
	0x51, 0x94, 0x5c, 0x3e, 0xfe, 0xc0, 0x4d, 0x3e, 0x63, 0xac, 0xa6, 0x3e, 
	0x12, 0x0b, 0x82, 0x3d, 0x49, 0x4b, 0xfb, 0xbd, 0x81, 0x95, 0x40, 0x3e, 
	0xf9, 0xb6, 0x70, 0xbe, 0x5a, 0x1b, 0x98, 0x3d, 0x99, 0x7a, 0xa8, 0xbd, 
	0xc2, 0xe8, 0x33, 0x3d, 0x7d, 0x1f, 0x66, 0xbd, 0xe5, 0x11, 0x82, 0xbe, 
	0xb9, 0xe1, 0x2d, 0xbe, 0x2a, 0xdb, 0x62, 0xbe, 0x18, 0x7e, 0x22, 0xbe, 
	0xad, 0x8e, 0xe9, 0xbc, 0x23, 0x46, 0xb5, 0xbd, 0x24, 0xbc, 0xfe, 0x3c, 
	0x4e, 0xcc, 0xf3, 0xbd, 0xd6, 0x9e, 0x1c, 0xbe, 0xf4, 0x73, 0xf1, 0xbe, 
	0xbc, 0x21, 0x63, 0x3d, 0x3d, 0xef, 0x4f, 0x3e, 0x3f, 0xa6, 0x54, 0x3c, 
	0x2c, 0x5a, 0xed, 0x3b, 0xb3, 0x89, 0x22, 0x3e, 0x3d, 0x6b, 0x8e, 0xbc, 
	0xd6, 0x5a, 0x7c, 0xbd, 0x2f, 0x1c, 0x60, 0xbd, 0x7c, 0xb1, 0x88, 0x3e, 
	0x5c, 0xa2, 0x0d, 0xbf, 0x79, 0x9f, 0x48, 0x3e, 0xdd, 0xd0, 0x5b, 0xbe, 
	0x16, 0xf0, 0x75, 0xbf, 0x7f, 0xd0, 0x05, 0xbf, 0xc8, 0x2a, 0x35, 0xbe, 
	0x69, 0x31, 0xb9, 0x3d, 0x4b, 0xca, 0x2a, 0x3e, 0xe7, 0x44, 0xd7, 0xbd, 
	0x33, 0xb7, 0x82, 0x3e, 0xcf, 0xf3, 0x0a, 0x3e, 0xe5, 0xbf, 0xab, 0xbe, 
	0xc2, 0xd1, 0x3a, 0xbf, 0xc0, 0x7a, 0xf1, 0x3d, 0x4c, 0x4d, 0x35, 0xbe, 
	0xd9, 0x16, 0x16, 0x3e, 0x04, 0x2a, 0x58, 0x3e, 0xfd, 0xe8, 0x1a, 0x3e, 
	0x25, 0xc5, 0xb8, 0x3d, 0x8e, 0x58, 0x00, 0x3e, 0x1e, 0x72, 0x05, 0xbe, 
	0xd6, 0xac, 0x74, 0x3d, 0x7c, 0xd6, 0xec, 0x3d, 0xdc, 0x19, 0xe9, 0x3c, 
	0x88, 0x32, 0x5a, 0xbd, 0x77, 0x27, 0xf9, 0x3b, 0x6a, 0x3c, 0x7c, 0xbd, 
	0x94, 0x91, 0xc4, 0xbc, 0x96, 0x08, 0x01, 0x3d, 0x56, 0x1b, 0x33, 0xbe, 
	0x50, 0x4b, 0xe3, 0xbd, 0x83, 0xba, 0x4e, 0xbd, 0xae, 0x5c, 0x8a, 0xbd, 
	0xf3, 0xe6, 0x6f, 0xbd, 0x42, 0x4f, 0x14, 0x3d, 0xa7, 0xa8, 0x06, 0x3d, 
	0x8a, 0x9b, 0xc5, 0xbe, 0x70, 0x9f, 0x3d, 0x3d, 0x92, 0x42, 0xf5, 0xbe, 
	0x35, 0xbd, 0x23, 0x3e, 0x1f, 0xd3, 0x5a, 0x3e, 0xd4, 0xb0, 0xf9, 0x3c, 
	0x9f, 0x77, 0x09, 0x3e, 0x91, 0x21, 0xfa, 0x3d, 0xde, 0x72, 0x24, 0xbe, 
	0xce, 0x2a, 0x1b, 0x3d, 0x4a, 0xbd, 0x5c, 0x3a, 0xb6, 0x56, 0x76, 0x3d, 
	0x30, 0xfb, 0x91, 0xbd, 0x3e, 0x39, 0xa4, 0x3e, 0x1a, 0x7d, 0x6e, 0xbe, 
	0x07, 0x49, 0x62, 0xbf, 0xd3, 0x5a, 0xc5, 0xbe, 0xb1, 0xba, 0xd1, 0xbe, 
	0xbc, 0x90, 0x3e, 0x3e, 0x80, 0xe7, 0x02, 0x3e, 0x3a, 0xf5, 0x07, 0xbf, 
	0xfb, 0xdb, 0x9d, 0x3d, 0x42, 0x03, 0x40, 0xbe, 0x9f, 0x75, 0xc5, 0xbe, 
	0x11, 0x8b, 0x5a, 0x3d, 0x67, 0x68, 0x3d, 0x3e, 0x65, 0x85, 0x52, 0x3e, 
	0xf6, 0xad, 0xe9, 0x3c, 0x4c, 0xdc, 0xd8, 0x3d, 0xbb, 0xff, 0x96, 0x3b, 
	0xf3, 0x7a, 0x01, 0x3e, 0xc2, 0xb4, 0x3c, 0xbe, 0x3c, 0x46, 0xe8, 0xbd, 
	0xa8, 0x93, 0x9e, 0x3d, 0xc4, 0xdc, 0xcd, 0x3d, 0xa1, 0x5d, 0xcc, 0xbd, 
	0x27, 0xa9, 0x91, 0x3e, 0x98, 0xe5, 0x64, 0xbd, 0xf7, 0x2d, 0x3d, 0x3e, 
	0x8f, 0x0c, 0xad, 0xbc, 0xa8, 0x36, 0x8d, 0xbe, 0xa7, 0xba, 0x79, 0x3c, 
	0x54, 0x55, 0xc6, 0xbd, 0x74, 0x5d, 0x5c, 0xbb, 0xc8, 0xe0, 0x05, 0xbe, 
	0xf5, 0x75, 0x45, 0xbe, 0x73, 0x70, 0x03, 0x3e, 0x8d, 0xf7, 0xc7, 0xbc, 
	0x2a, 0x94, 0xbc, 0xbe, 0x96, 0xe9, 0x86, 0x3e, 0xf7, 0x98, 0x2e, 0xbe, 
	0x8a, 0xdd, 0xec, 0x3d, 0x94, 0x28, 0x23, 0x3e, 0x59, 0x24, 0x4f, 0x3d, 
	0xc5, 0x02, 0x9f, 0xbd, 0x8b, 0x1c, 0x8b, 0x3c, 0x4e, 0xb2, 0x5d, 0x3e, 
	0x26, 0x92, 0x05, 0x3e, 0xd0, 0x74, 0xd4, 0x3d, 0x87, 0xa1, 0x75, 0x3e, 
	0xb7, 0xe5, 0xac, 0xbe, 0x6e, 0xed, 0xd6, 0x3d, 0x2c, 0x58, 0x3a, 0xbe, 
	0x07, 0x1c, 0xee, 0xbe, 0x04, 0xf3, 0xe8, 0x3d, 0xda, 0xa1, 0x15, 0xbf, 
	0x1d, 0xe3, 0xca, 0x3e, 0x80, 0x57, 0x7f, 0xbd, 0xed, 0x1d, 0x86, 0xbd, 
	0x8c, 0x36, 0xe2, 0x3d, 0x9f, 0xdd, 0x16, 0xbe, 0x2e, 0xa2, 0xf6, 0xbe, 
	0x05, 0x57, 0x2f, 0xbe, 0x56, 0x09, 0xaa, 0x3d, 0x96, 0x99, 0x0a, 0x3e, 
	0x0a, 0x51, 0xde, 0xbd, 0xf7, 0x82, 0xb1, 0x3e, 0x25, 0x5c, 0x9a, 0xbd, 
	0x98, 0x36, 0x08, 0x3e, 0xc3, 0x1f, 0xfe, 0xbd, 0x8d, 0x7f, 0xab, 0xbe, 
	0xac, 0x0f, 0x0d, 0x3e, 0xe3, 0x83, 0x85, 0x3e, 0x2b, 0x22, 0xad, 0xbc, 
	0x73, 0xa2, 0x81, 0x3e, 0x7e, 0xfa, 0x21, 0x3d, 0x70, 0xcb, 0xd7, 0x3d, 
	0xab, 0x4c, 0xad, 0x3d, 0x15, 0xc4, 0xc6, 0xbe, 0xc8, 0x4e, 0x6f, 0x3e, 
	0x4d, 0xef, 0x69, 0x3e, 0xf7, 0xe9, 0x09, 0x3e, 0x11, 0x79, 0x55, 0x3e, 
	0x59, 0xd9, 0x9e, 0x3d, 0x8d, 0x1c, 0x0d, 0xba, 0x63, 0x9e, 0x25, 0xbe, 
	0xb8, 0x4b, 0x13, 0xbd, 0x74, 0x73, 0x96, 0x3d, 0x63, 0xaf, 0x9d, 0x3d, 
	0xf5, 0x5c, 0x49, 0x3d, 0x6a, 0x16, 0xe3, 0xbd, 0x61, 0xec, 0x7d, 0xbb, 
	0x08, 0x5b, 0x20, 0x3d, 0xbb, 0x8d, 0x77, 0xbe, 0x97, 0xee, 0x32, 0xbd, 
	0xe6, 0x4c, 0xb0, 0x3d, 0x83, 0x30, 0xc1, 0x3d, 0xf5, 0x50, 0x42, 0x3e, 
	0x56, 0x38, 0x20, 0x3d, 0xa2, 0xbe, 0x1d, 0x3e, 0x8b, 0xba, 0xc3, 0x3d, 
	0xce, 0x3a, 0x50, 0xbe, 0x4e, 0x3e, 0xe6, 0x3d, 0xd7, 0x7f, 0xea, 0xbd, 
	0x81, 0xdc, 0x44, 0xbd, 0x0c, 0xe6, 0x8d, 0xbe, 0xfd, 0xff, 0x01, 0xbf, 
	0x8e, 0xfb, 0x83, 0xbe, 0x39, 0x48, 0x5a, 0xbe, 0xc3, 0xe3, 0xa9, 0xbe, 
	0x26, 0xa3, 0x8a, 0xbd, 0x3d, 0xdd, 0xcd, 0xbd, 0x57, 0x63, 0x75, 0x3e, 
	0xfc, 0x52, 0x3f, 0xbd, 0xe5, 0xb1, 0x3e, 0xbb, 0x22, 0xad, 0x61, 0xbd, 
	0xb2, 0x98, 0x37, 0xbe, 0x86, 0xfe, 0x21, 0xbf, 0xbd, 0x1c, 0xff, 0x3c, 
	0x87, 0xf6, 0xaf, 0xbd, 0xd7, 0x4e, 0xdf, 0x3d, 0xb6, 0x85, 0x80, 0xbe, 
	0x40, 0x70, 0xb0, 0xbe, 0xb9, 0x32, 0xd8, 0xbd, 0xfa, 0x52, 0xaa, 0xbd, 
	0x03, 0x8e, 0x9a, 0xbe, 0xf9, 0x8f, 0x57, 0x3d, 0xdf, 0x45, 0x69, 0x3e, 
	0xcb, 0x3d, 0x69, 0xbe, 0x8e, 0x6b, 0x32, 0xbd, 0x0a, 0xe8, 0x31, 0x3e, 
	0xd7, 0xd3, 0x8d, 0xbd, 0x49, 0x56, 0xe6, 0xbc, 0xbc, 0x5e, 0xd8, 0xbd, 
	0xbf, 0x07, 0x9b, 0xbd, 0x61, 0x97, 0x63, 0xbd, 0x95, 0x88, 0xbf, 0x3c, 
	0x8c, 0xdd, 0x96, 0x3d, 0xa5, 0xb4, 0xba, 0xbc, 0x28, 0xff, 0xe1, 0x3d, 
	0xee, 0xa1, 0x6e, 0x3d, 0x11, 0x7e, 0x3d, 0xbd, 0x4e, 0x75, 0x16, 0xbe, 
	0xc9, 0x0a, 0x4e, 0x3e, 0xdd, 0xf5, 0x38, 0xbd, 0xe3, 0x36, 0x84, 0x3e, 
	0x99, 0x7b, 0xb2, 0xbc, 0x3b, 0x2c, 0xb6, 0x3d, 0xbb, 0x70, 0x5d, 0x3e, 
	0xe0, 0xd7, 0xc8, 0x3e, 0x93, 0xfb, 0xd5, 0xbd, 0x62, 0x7f, 0x91, 0xbe, 
	0x1f, 0x5e, 0x01, 0x3e, 0xd8, 0x50, 0xb6, 0xbe, 0xc4, 0xef, 0xee, 0xbd, 
	0x54, 0x53, 0xa9, 0xbd, 0xa6, 0xf6, 0x0f, 0xbe, 0x38, 0xbd, 0x84, 0x3d, 
	0x72, 0xa2, 0x60, 0xbd, 0xb4, 0x31, 0xc9, 0xb9, 0x56, 0xc2, 0x16, 0x3e, 
	0xde, 0x09, 0xc1, 0xbd, 0x30, 0x21, 0x16, 0x3e, 0x8c, 0xa0, 0x61, 0xbd, 
	0xbc, 0x6d, 0xd9, 0xbc, 0x9d, 0x51, 0x46, 0xbe, 0x90, 0xf9, 0x26, 0xbc, 
	0x25, 0x81, 0x7b, 0xbe, 0xc2, 0x04, 0xb0, 0xbd, 0xe6, 0x29, 0xa6, 0xbc, 
	0xd6, 0x61, 0xb0, 0xbe, 0x5d, 0x69, 0x47, 0xbe, 0x27, 0xb5, 0x8d, 0xbd, 
	0x75, 0x16, 0x4c, 0xbe, 0x94, 0x23, 0x8e, 0xbe, 0x07, 0xf6, 0x25, 0xbd, 
	0x7a, 0xc0, 0x1a, 0xbe, 0x3c, 0x1d, 0xf9, 0x3d, 0xe7, 0x66, 0x1d, 0xbe, 
	0x37, 0x8a, 0xd5, 0x3d, 0x5f, 0x3e, 0xd7, 0x3c, 0x48, 0xa2, 0x07, 0xbd, 
	0xeb, 0x3b, 0x79, 0xbe, 0x69, 0x04, 0x7b, 0x3e, 0xaf, 0x15, 0x5b, 0x3d, 
	0x09, 0xe3, 0x3f, 0x3e, 0xe8, 0x78, 0x77, 0xbd, 0xe5, 0xd9, 0xef, 0x3c, 
	0x6f, 0x15, 0x8c, 0x3a, 0xe2, 0x83, 0x18, 0x3e, 0xb9, 0x5f, 0x21, 0xbd, 
	0x36, 0x32, 0xdb, 0x3d, 0xd0, 0xc1, 0xc5, 0x3d, 0x3a, 0xfa, 0xa2, 0x3e, 
	0x91, 0xf4, 0xe4, 0xbd, 0x02, 0x2b, 0x4e, 0x3e, 0xe7, 0x6a, 0x87, 0x3e, 
	0x82, 0xd7, 0x42, 0xbe, 0x86, 0x5b, 0x28, 0x3b, 0x2a, 0x34, 0x21, 0xbe, 
	0xaf, 0x13, 0x44, 0x3c, 0x50, 0xb5, 0xa9, 0xbc, 0x37, 0x4a, 0x19, 0xbe, 
	0xfe, 0x54, 0xf5, 0xbd, 0x81, 0x16, 0x14, 0x3d, 0x4d, 0x01, 0xd8, 0xbd, 
	0xe2, 0xb2, 0x74, 0x3e, 0x55, 0x5c, 0x15, 0xbe, 0x4b, 0x64, 0xeb, 0xbd, 
	0x69, 0x79, 0x7a, 0x3d, 0x93, 0x0c, 0x60, 0x3d, 0x25, 0x62, 0x56, 0xbe, 
	0xb4, 0xd3, 0x11, 0x3e, 0x25, 0x78, 0xd4, 0x3d, 0x91, 0x37, 0xf3, 0xbd, 
	0x6c, 0x09, 0xc6, 0xbd, 0x5b, 0x9b, 0x51, 0xbe, 0x66, 0x46, 0xbe, 0x3c, 
	0x0c, 0xbf, 0x57, 0xbd, 0xa0, 0x93, 0x2e, 0xbe, 0x33, 0x29, 0x48, 0x3d, 
	0x2e, 0xaf, 0x41, 0xbc, 0x77, 0x40, 0x11, 0xbd, 0x7f, 0x18, 0x8c, 0xba, 
	0x32, 0x2b, 0x92, 0xbc, 0x39, 0x49, 0x31, 0x3e, 0xa5, 0x7a, 0x8b, 0xbd, 
	0x4d, 0xf8, 0x2e, 0xbd, 0x58, 0x06, 0x9a, 0x3d, 0x95, 0x5d, 0x83, 0xbd, 
	0x61, 0xb2, 0x5f, 0x3d, 0xe9, 0xe1, 0x55, 0x3d, 0x03, 0x00, 0x02, 0x3e, 
	0x1c, 0xbc, 0x05, 0x3d, 0x7e, 0x29, 0xc2, 0x3d, 0x47, 0x95, 0x00, 0x3d, 
	0xf3, 0x24, 0x49, 0x3e, 0xb7, 0xa1, 0xec, 0x3c, 0x20, 0x11, 0x82, 0xbd, 
	0xd6, 0x69, 0x8e, 0x3d, 0xa1, 0x9c, 0x83, 0x3e, 0xe8, 0xd1, 0xd5, 0x3d, 
	0x7d, 0xb6, 0xa2, 0x3c, 0x61, 0x89, 0x53, 0xbd, 0x42, 0x37, 0x1c, 0x3e, 
	0x3b, 0x3d, 0xa7, 0xbe, 0x20, 0x5e, 0x87, 0x3d, 0x51, 0x00, 0x7b, 0x3c, 
	0xfa, 0x14, 0x92, 0x3c, 0x55, 0x71, 0x03, 0xbc, 0x1a, 0x85, 0x08, 0xbd, 
	0x2d, 0x83, 0x8a, 0xbd, 0x79, 0x63, 0x28, 0xbe, 0xc4, 0xf4, 0x5c, 0xbe, 
	0xae, 0x84, 0x0e, 0xbe, 0xe1, 0xfc, 0x5e, 0xbe, 0xee, 0x80, 0x90, 0xbe, 
	0x22, 0xac, 0xa7, 0xbe, 0x71, 0x74, 0x70, 0x3d, 0x72, 0x97, 0x32, 0xbd, 
	0xce, 0x2d, 0x4d, 0x3e, 0xfb, 0xa0, 0x55, 0xbe, 0x29, 0x70, 0xc6, 0xbe, 
	0xd7, 0xb4, 0xab, 0xbd, 0x30, 0x97, 0xa1, 0xbd, 0x15, 0xdc, 0x94, 0x3e, 
	0x4c, 0x14, 0x5c, 0x3e, 0x00, 0xcc, 0x12, 0x3d, 0x2d, 0x7c, 0x8f, 0xbd, 
	0x32, 0x1b, 0xf2, 0xbe, 0x9e, 0x7e, 0x1f, 0x3d, 0x18, 0x88, 0xec, 0xbd, 
	0xf6, 0xfc, 0x81, 0x3e, 0xec, 0x36, 0x35, 0x3d, 0x84, 0x1b, 0x29, 0xbe, 
	0x50, 0x07, 0x57, 0x3e, 0x9e, 0xfc, 0x69, 0xbe, 0x57, 0x3c, 0x08, 0xbf, 
	0x2c, 0x7e, 0xef, 0x3c, 0x7a, 0x74, 0xbf, 0xbd, 0xee, 0x37, 0x0e, 0x3e, 
	0x62, 0xc1, 0x54, 0xbe, 0xc7, 0x7f, 0xa5, 0xbd, 0x80, 0x85, 0x03, 0xbe, 
	0xf2, 0x20, 0x25, 0x3e, 0x53, 0x4f, 0x77, 0xbe, 0x3f, 0x94, 0x0b, 0xbd, 
	0x9f, 0x82, 0x29, 0x3e, 0xf1, 0x5a, 0x82, 0x3e, 0xdd, 0x7b, 0xb1, 0xbe, 
	0x1d, 0x77, 0x9c, 0x3e, 0x02, 0x94, 0xef, 0xbe, 0xed, 0x10, 0x88, 0x3e, 
	0xc9, 0x47, 0x91, 0x3e, 0x59, 0x91, 0x52, 0x3d, 0x38, 0x70, 0x47, 0x3e, 
	0xaf, 0xb5, 0xd4, 0xbe, 0x45, 0xd2, 0xaf, 0xbe, 0xd8, 0x05, 0x02, 0x3d, 
	0xf9, 0x74, 0xb0, 0xbe, 0x78, 0xf5, 0x32, 0xbe, 0x50, 0x99, 0xb1, 0xbe, 
	0xfa, 0x3d, 0xb4, 0x3c, 0x1e, 0xac, 0xb4, 0xbe, 0x5a, 0x49, 0xb2, 0xbe, 
	0xd7, 0xc7, 0xe5, 0x3d, 0xde, 0xc0, 0xda, 0xbd, 0xf7, 0xd0, 0x6c, 0x3a, 
	0x20, 0xfd, 0xaa, 0xbd, 0x47, 0x20, 0x0f, 0xbf, 0xff, 0xe0, 0xbc, 0x3e, 
	0xd6, 0x05, 0x62, 0x3c, 0x5e, 0x1d, 0xdf, 0x3d, 0x4f, 0xb8, 0x62, 0x3e, 
	0x4c, 0x31, 0x36, 0xbe, 0x63, 0x1b, 0x39, 0x3e, 0x00, 0x51, 0xbf, 0xbd, 
	0x7d, 0xfb, 0x9e, 0xbe, 0x74, 0x53, 0x51, 0x3e, 0xe5, 0x96, 0x0a, 0x3d, 
	0xac, 0x49, 0xd6, 0x3e, 0xcf, 0xc6, 0x91, 0xbe, 0xb8, 0xe1, 0x85, 0xbe, 
	0x8a, 0x77, 0x44, 0xbe, 0x68, 0xb2, 0x08, 0xbf, 0x09, 0x92, 0xec, 0xbe, 
	0x7b, 0x2f, 0x49, 0x3e, 0xc1, 0x8f, 0x9a, 0xbe, 0xfc, 0xea, 0x54, 0x3e, 
	0xfa, 0x35, 0x27, 0xbf, 0x92, 0xe4, 0xa8, 0x3c, 0x3d, 0x20, 0x97, 0xbe, 
	0xb2, 0x91, 0x6c, 0xbe, 0xe4, 0x07, 0xc4, 0xbe, 0x9c, 0x09, 0x92, 0x3d, 
	0x70, 0x38, 0xf7, 0xbd, 0x9c, 0xef, 0xa4, 0xbe, 0x76, 0xda, 0x15, 0xbf, 
	0x76, 0x29, 0xb3, 0x3e, 0xba, 0xb9, 0x10, 0xbf, 0x99, 0xf5, 0xc8, 0x3c, 
	0xa8, 0x39, 0x5d, 0x3d, 0x59, 0xfc, 0x26, 0xbe, 0xb0, 0x38, 0x8f, 0xbe, 
	0xfd, 0x53, 0x7e, 0xbe, 0x0e, 0xae, 0x35, 0x3a, 0x13, 0x3b, 0x9e, 0xbd, 
	0x9d, 0x2e, 0x65, 0xbd, 0xb6, 0x97, 0xf5, 0x3d, 0x97, 0x85, 0xb5, 0x3d, 
	0x2c, 0xce, 0x46, 0xbf, 0xc8, 0xc5, 0x0b, 0xbd, 0xbb, 0x4b, 0x98, 0xbd, 
	0x74, 0x84, 0x17, 0x3d, 0x05, 0xbc, 0x16, 0x3e, 0x47, 0x28, 0x7e, 0xbd, 
	0x6b, 0xf1, 0x29, 0xbe, 0x4f, 0x19, 0x92, 0xbd, 0x0f, 0x38, 0xa7, 0xbc, 
	0x50, 0xeb, 0xa1, 0xbd, 0xd6, 0x08, 0x1c, 0x3e, 0xa4, 0xe3, 0x7a, 0xbd, 
	0x07, 0xc8, 0x51, 0xbe, 0xcf, 0x1c, 0x1a, 0x3d, 0x1d, 0xcb, 0x1f, 0x3c, 
	0xf1, 0x41, 0xa5, 0x3d, 0x01, 0x9f, 0xaa, 0xbb, 0x06, 0x21, 0xa6, 0xbc, 
	0xa3, 0x08, 0x2b, 0xbe, 0xab, 0xd7, 0xa2, 0x3b, 0xf4, 0x49, 0xd3, 0xbd, 
	0xb6, 0x18, 0x5a, 0xbe, 0xdd, 0xd8, 0x85, 0x3d, 0x33, 0x9a, 0x08, 0x3e, 
	0x68, 0x88, 0x37, 0xbe, 0xc8, 0x09, 0x8c, 0xbd, 0xeb, 0xc6, 0xf2, 0xbd, 
	0x44, 0xd5, 0x12, 0xbc, 0xab, 0x96, 0x52, 0x3e, 0x1b, 0x4b, 0x90, 0xbc, 
	0x33, 0x36, 0x9c, 0xbd, 0xc9, 0x96, 0x29, 0x3e, 0x53, 0xa2, 0x00, 0xbd, 
	0x2b, 0xa3, 0xf2, 0xbe, 0x02, 0xa3, 0x17, 0xbe, 0xf9, 0xcf, 0x31, 0xbb, 
	0xd1, 0x21, 0x2c, 0xbf, 0xd9, 0x2f, 0x2b, 0x3d, 0xc7, 0xd1, 0xf9, 0xbe, 
	0x19, 0xdf, 0xc1, 0xbe, 0xe4, 0x3b, 0x08, 0xbe, 0x2f, 0xae, 0x0f, 0xbe, 
	0x6c, 0x1c, 0x30, 0x3e, 0xd9, 0x6f, 0xe1, 0x3d, 0x16, 0x5d, 0x87, 0x3b, 
	0x80, 0x71, 0x41, 0xbb, 0x89, 0x59, 0x02, 0x3d, 0xa0, 0xa4, 0x23, 0x3d, 
	0xa8, 0xe4, 0x03, 0xbf, 0x85, 0x7e, 0x5c, 0xbd, 0x0d, 0xab, 0x47, 0xbe, 
	0xb9, 0xca, 0x62, 0x3d, 0x18, 0x30, 0x17, 0xbc, 0x73, 0x73, 0xf1, 0x3c, 
	0xa0, 0x2c, 0x3e, 0x3e, 0x22, 0xbb, 0x7d, 0x3e, 0x02, 0x03, 0x26, 0xbe, 
	0x14, 0x90, 0x99, 0xbd, 0xbf, 0xe7, 0x66, 0xbd, 0x98, 0x16, 0x5b, 0x3d, 
	0x70, 0xec, 0x72, 0x3e, 0xf3, 0xe3, 0x6b, 0x3d, 0x0c, 0x6e, 0x3c, 0xbd, 
	0xae, 0xe4, 0x84, 0xbd, 0x91, 0x03, 0xbc, 0xbc, 0x43, 0x80, 0x91, 0xbb, 
	0xa3, 0xf4, 0x50, 0xbd, 0x1b, 0xee, 0x7d, 0x3d, 0x9a, 0xec, 0x93, 0xbe, 
	0x8e, 0x0d, 0x77, 0x3d, 0x45, 0x42, 0x88, 0xbe, 0xc4, 0x27, 0x8e, 0xbe, 
	0xa8, 0xfd, 0xff, 0xbd, 0xa0, 0x9b, 0x5d, 0x3d, 0x4f, 0x4b, 0xc5, 0x3b, 
	0x25, 0xb2, 0x21, 0x3e, 0x91, 0x2b, 0x01, 0x3d, 0xb8, 0xc8, 0x39, 0x3e, 
	0x48, 0x4d, 0x42, 0x3e, 0x89, 0x46, 0x07, 0x3e, 0x55, 0xf9, 0x4b, 0xbc, 
	0x75, 0x07, 0x6b, 0xbd, 0xeb, 0x2d, 0x30, 0x3e, 0x53, 0xad, 0xb6, 0xbd, 
	0x17, 0x7b, 0x1b, 0xbe, 0x41, 0x2c, 0x94, 0xbc, 0xf0, 0xc9, 0x8a, 0x3d, 
	0x92, 0x87, 0x04, 0xbf, 0xd1, 0x83, 0x92, 0x3d, 0xd0, 0x2b, 0x35, 0xbc, 
	0x3e, 0x29, 0x3f, 0x3c, 0x36, 0xc9, 0x1f, 0xbe, 0x09, 0x2a, 0x17, 0xbe, 
	0x30, 0xda, 0x86, 0x3d, 0xf1, 0x05, 0x02, 0xbe, 0x5c, 0x8e, 0x91, 0xbe, 
	0x9b, 0xb1, 0x39, 0xbf, 0x9d, 0x0f, 0x52, 0xbd, 0x08, 0xd3, 0xc3, 0xbe, 
	0x68, 0xd4, 0x74, 0xbe, 0x08, 0x43, 0x39, 0xbd, 0xcc, 0x62, 0x59, 0xbd, 
	0x6f, 0x0a, 0x2e, 0xbc, 0x7d, 0xd2, 0x33, 0x3e, 0xc3, 0xcd, 0x03, 0xbf, 
	0x0f, 0xff, 0x44, 0x3d, 0x6a, 0xb6, 0xa3, 0xbe, 0x90, 0x10, 0x4e, 0x3e, 
	0xcb, 0x0c, 0xd0, 0x3d, 0xb4, 0xf5, 0x2a, 0x3e, 0xf3, 0x1a, 0x8a, 0x3d, 
	0xd6, 0x4e, 0x12, 0xbe, 0xd7, 0x01, 0xd2, 0xbd, 0x02, 0xc3, 0x46, 0xbd, 
	0xae, 0xd8, 0x97, 0x3e, 0xeb, 0x76, 0x95, 0x3d, 0xec, 0x53, 0x9e, 0xbe, 
	0x73, 0x9e, 0x0e, 0x3e, 0x01, 0x8f, 0xb3, 0xbe, 0x00, 0x49, 0xb2, 0xbe, 
	0xc4, 0x9d, 0xc2, 0x3d, 0xe4, 0xda, 0x46, 0xbe, 0x08, 0xa3, 0x27, 0x3e, 
	0xd3, 0x90, 0x5c, 0xbe, 0xc5, 0x82, 0x50, 0xbe, 0x63, 0x8d, 0xce, 0xbd, 
	0xef, 0x91, 0x37, 0xbd, 0x09, 0x7e, 0xac, 0xbc, 0xf9, 0x56, 0x4c, 0x3d, 
	0xf0, 0x3a, 0x9a, 0xbc, 0x67, 0x70, 0x81, 0x3e, 0xd6, 0x4e, 0xcf, 0xbe, 
	0xf0, 0xf5, 0x0f, 0x3c, 0x1d, 0xe4, 0x8f, 0xbe, 0xdd, 0x52, 0xe7, 0x3d, 
	0x0b, 0x1a, 0x4d, 0x3e, 0xc5, 0x59, 0x9d, 0x3d, 0x63, 0xda, 0x56, 0xbd, 
	0xf4, 0x36, 0x5b, 0xbe, 0x72, 0xdb, 0xe7, 0xbe, 0x4f, 0x7f, 0x89, 0xbe, 
	0xd8, 0x5b, 0x35, 0xbe, 0x4f, 0x3d, 0x12, 0xbd, 0xbf, 0xc8, 0xda, 0xbe, 
	0xe7, 0xbd, 0xd9, 0xbe, 0x38, 0x96, 0x4d, 0xbe, 0x7c, 0x1a, 0xb0, 0xbe, 
	0xf0, 0xe2, 0x0a, 0x3e, 0x1d, 0x78, 0x33, 0xbe, 0x0d, 0x91, 0xa7, 0xbc, 
	0xd3, 0x8a, 0xa4, 0x3d, 0x3e, 0xcb, 0x67, 0xbe, 0x57, 0x4a, 0x39, 0x3b, 
	0x40, 0xe8, 0x18, 0x3e, 0xcc, 0xa9, 0x93, 0xbd, 0x56, 0x5e, 0x58, 0x3c, 
	0xdd, 0x82, 0x12, 0x3e, 0xd1, 0x5b, 0x2c, 0x3e, 0xcd, 0x36, 0x7e, 0xbd, 
	0xd4, 0x30, 0x89, 0x3e, 0x3c, 0x33, 0x9f, 0xbd, 0xa7, 0x52, 0x53, 0x3e, 
	0x76, 0xd9, 0x95, 0x3d, 0xd5, 0x59, 0xb0, 0xbd, 0xc1, 0x6b, 0x61, 0xbe, 
	0x8c, 0x68, 0x00, 0xbe, 0x53, 0xae, 0x1a, 0xbe, 0x88, 0xc1, 0x16, 0x3e, 
	0x7e, 0xb7, 0x94, 0x3d, 0xb4, 0x2f, 0x93, 0x3c, 0xf9, 0x23, 0x40, 0xbe, 
	0xc3, 0xef, 0x63, 0xbe, 0x7f, 0x23, 0xa5, 0xbe, 0xed, 0x7d, 0x35, 0xbe, 
	0xcc, 0xf8, 0x95, 0xbe, 0xfb, 0x75, 0xe9, 0xbd, 0xcc, 0x8d, 0xcb, 0x3d, 
	0x41, 0xa2, 0xd3, 0xbe, 0x51, 0x10, 0xe1, 0xbd, 0x2e, 0xc5, 0x12, 0xbe, 
	0x7f, 0x3b, 0xac, 0xbe, 0xea, 0x90, 0x31, 0x3d, 0x6a, 0xfd, 0x2c, 0xbf, 
	0xfc, 0x91, 0x9c, 0xbe, 0x2f, 0x48, 0x59, 0xbe, 0x66, 0xc5, 0x9a, 0xbe, 
	0x34, 0x90, 0x5c, 0xbe, 0xf1, 0x0d, 0x38, 0xbe, 0xee, 0x57, 0xc8, 0x3c, 
	0x6c, 0x80, 0x90, 0xbe, 0xbc, 0x43, 0xc6, 0xbb, 0xfd, 0x05, 0xc7, 0xbe, 
	0xde, 0xbd, 0x87, 0xbe, 0x48, 0x3f, 0x9b, 0xbd, 0x6a, 0x19, 0xc0, 0x3d, 
	0xb6, 0x34, 0x9b, 0x3d, 0x66, 0x41, 0xaa, 0x3d, 0x47, 0x93, 0x3a, 0x3e, 
	0xcc, 0x3b, 0x71, 0x3d, 0xf8, 0x59, 0x9b, 0xbe, 0x97, 0x9d, 0x80, 0x3e, 
	0x1d, 0x05, 0x82, 0xbd, 0x7b, 0x21, 0xbe, 0x3e, 0xbe, 0x0e, 0x52, 0xbd, 
	0x28, 0xbb, 0x1e, 0xbe, 0xe8, 0x16, 0x26, 0x3c, 0xbd, 0xf2, 0xdd, 0x3d, 
	0x5a, 0xf6, 0xf7, 0x3d, 0xf7, 0xe7, 0x85, 0x3d, 0xbf, 0x54, 0xdc, 0xbd, 
	0x01, 0x91, 0x80, 0xbd, 0xe0, 0x77, 0x03, 0xbe, 0x86, 0xf8, 0x06, 0x3e, 
	0xad, 0x6e, 0x84, 0xbe, 0x91, 0x5f, 0x76, 0x3e, 0xca, 0x5f, 0xa3, 0x3e, 
	0x31, 0x5b, 0xce, 0xbe, 0x85, 0x8c, 0x4c, 0x3e, 0x3b, 0xc0, 0xbc, 0xbe, 
	0x97, 0x0e, 0x1f, 0x3e, 0xbf, 0xae, 0xd9, 0x3e, 0x29, 0xac, 0x63, 0xbc, 
	0x5c, 0xdd, 0x84, 0xbc, 0x20, 0x08, 0x4d, 0x3e, 0x35, 0xb7, 0xba, 0xbd, 
	0xad, 0xf3, 0x69, 0xbe, 0xde, 0x9b, 0x67, 0xbd, 0xb3, 0x25, 0x25, 0x3e, 
	0xf8, 0x41, 0x52, 0xbe, 0x09, 0x8d, 0x28, 0x3c, 0x63, 0x51, 0xcd, 0xbe, 
	0xab, 0x89, 0x61, 0xbf, 0xe0, 0x29, 0x86, 0xbe, 0xda, 0x64, 0x4f, 0xbf, 
	0x3c, 0x6b, 0xf9, 0x3d, 0xee, 0x6b, 0x8f, 0x3d, 0xc1, 0x55, 0x8a, 0xbe, 
	0xb1, 0x1b, 0x76, 0x3e, 0xf0, 0x72, 0x32, 0xbe, 0xd4, 0xb1, 0x22, 0xbf, 
	0x18, 0xae, 0x32, 0xbe, 0x77, 0x7d, 0x09, 0x3e, 0xc7, 0xb2, 0x9e, 0xbd, 
	0x43, 0x5d, 0x04, 0xbd, 0x8f, 0x0c, 0x9c, 0xbd, 0x2a, 0x48, 0x13, 0xbe, 
	0x85, 0xeb, 0xf3, 0x3d, 0xa4, 0x8a, 0xa9, 0x3c, 0x37, 0x27, 0x8e, 0xbe, 
	0x5d, 0xd2, 0x37, 0x3e, 0x5f, 0xad, 0x0e, 0xbe, 0x20, 0xfb, 0xab, 0xbe, 
	0x51, 0x38, 0x2f, 0xbe, 0xb1, 0xab, 0x41, 0xbe, 0xc1, 0x07, 0x89, 0x3d, 
	0xb5, 0x06, 0x89, 0xbe, 0xa4, 0x00, 0x78, 0xbe, 0x2b, 0x7e, 0x7f, 0x3d, 
	0x03, 0x1e, 0xd0, 0xbe, 0xff, 0x55, 0x7a, 0x3d, 0xc9, 0x11, 0x8f, 0xbd, 
	0x4b, 0xb7, 0x05, 0x3d, 0xce, 0x54, 0xa1, 0xbb, 0x2d, 0x0c, 0x8b, 0xbe, 
	0x99, 0x0e, 0x84, 0x3e, 0x02, 0x63, 0x00, 0xbd, 0x1b, 0x51, 0x1e, 0x3e, 
	0xac, 0xb1, 0x7a, 0x3e, 0x2d, 0x11, 0x99, 0xbd, 0x97, 0x3b, 0x20, 0x3e, 
	0x4a, 0xc4, 0x23, 0xbe, 0x5c, 0xb7, 0x40, 0xbd, 0xc6, 0x43, 0xa7, 0x3d, 
	0x21, 0xf6, 0x56, 0x3a, 0xdd, 0x6b, 0x41, 0x3e, 0x9d, 0xdd, 0x6a, 0xbe, 
	0x0f, 0x1c, 0x25, 0x3d, 0xf9, 0xa0, 0x3b, 0xbd, 0x8b, 0xb6, 0x15, 0xbd, 
	0x40, 0x31, 0x1c, 0x3e, 0xba, 0xfe, 0xe0, 0xbd, 0x29, 0xec, 0x74, 0x3e, 
	0xc2, 0xd0, 0xe8, 0xbe, 0x25, 0x9e, 0xac, 0x3d, 0x19, 0xb8, 0xf7, 0x3d, 
	0x04, 0xa7, 0xd4, 0xbb, 0xd4, 0x08, 0xd6, 0x3d, 0x42, 0x11, 0x83, 0x3d, 
	0xbf, 0xaf, 0x61, 0xbf, 0x81, 0x98, 0x7c, 0xbd, 0x9d, 0x94, 0xce, 0xbd, 
	0xda, 0x85, 0x5f, 0x3e, 0x31, 0x33, 0x26, 0xbe, 0x84, 0xee, 0xb7, 0x3d, 
	0xf8, 0x6b, 0xc0, 0xbd, 0x2c, 0x11, 0xd1, 0xbd, 0x45, 0x60, 0x83, 0x3b, 
	0xef, 0x3a, 0xe9, 0x3d, 0xec, 0xaa, 0xce, 0x3c, 0x87, 0x60, 0x08, 0x3e, 
	0x2e, 0x70, 0x1f, 0x3e, 0xaf, 0x12, 0x62, 0xbd, 0x4c, 0x32, 0xef, 0x3d, 
	0x2e, 0xaf, 0xc2, 0x3d, 0xfd, 0x13, 0x15, 0xbe, 0x66, 0x9b, 0xf0, 0x3d, 
	0xe5, 0x29, 0x88, 0xbe, 0xd1, 0x0b, 0x84, 0xbe, 0xff, 0x3a, 0x96, 0xbd, 
	0x73, 0xcc, 0xf1, 0xbc, 0xae, 0xde, 0x31, 0x3d, 0xb2, 0xfa, 0x8b, 0x3e, 
	0x61, 0x41, 0x18, 0xbf, 0x86, 0x0d, 0xdd, 0x3d, 0x3b, 0x17, 0xb1, 0xbe, 
	0xd0, 0x0f, 0x65, 0x3e, 0x60, 0xa8, 0x29, 0x3d, 0x61, 0x71, 0xa3, 0x3d, 
	0xcc, 0x8e, 0xe2, 0x3c, 0xb4, 0xb7, 0x06, 0x3d, 0x6c, 0x03, 0x93, 0x3d, 
	0xb3, 0x9e, 0x33, 0x3e, 0x3c, 0x96, 0xc4, 0xbd, 0x26, 0x4b, 0x03, 0x3e, 
	0xeb, 0xf0, 0xae, 0x3b, 0x54, 0xbf, 0x41, 0x3e, 0x8e, 0x48, 0xf7, 0xbd, 
	0x10, 0xb2, 0x65, 0xbe, 0x3e, 0x2a, 0xac, 0xbe, 0x66, 0x88, 0x1f, 0x3d, 
	0xb7, 0x78, 0x27, 0x3e, 0x75, 0x38, 0xce, 0xbc, 0x89, 0x21, 0x00, 0xbd, 
	0x20, 0xd5, 0x67, 0x3e, 0x0b, 0x8b, 0x9a, 0x3d, 0x0a, 0xaa, 0x92, 0x3d, 
	0x6b, 0xd5, 0x27, 0xbe, 0xc4, 0xc5, 0x66, 0x3e, 0xf4, 0x6c, 0x4a, 0xbe, 
	0x50, 0x8d, 0x0e, 0xbe, 0xca, 0x3d, 0x97, 0x3d, 0x34, 0xe2, 0x28, 0x3e, 
	0xe2, 0x21, 0x43, 0x3e, 0xc5, 0xab, 0x93, 0x3e, 0xd6, 0xb0, 0x89, 0xbd, 
	0x7b, 0xb3, 0x06, 0x3e, 0x43, 0x46, 0x53, 0xbe, 0xe4, 0x01, 0xc9, 0x3b, 
	0x81, 0x1a, 0x8b, 0x3d, 0xc3, 0x69, 0x53, 0x3c, 0x41, 0x42, 0xbd, 0x3c, 
	0x8f, 0x73, 0x57, 0xbe, 0x28, 0x50, 0x4e, 0xbe, 0x8f, 0x4e, 0x7a, 0x3d, 
	0x10, 0x54, 0xd5, 0xbe, 0x1f, 0x8f, 0x4e, 0x3e, 0x9e, 0x07, 0xcd, 0xbd, 
	0x7a, 0xcd, 0xb2, 0x3c, 0xc4, 0x32, 0x3a, 0x3e, 0x1c, 0x42, 0xe2, 0xbd, 
	0x35, 0x3c, 0xe0, 0xbe, 0xb4, 0xb8, 0x5d, 0x3e, 0x41, 0xd1, 0x4a, 0xbe, 
	0x97, 0x63, 0x32, 0x3e, 0x7c, 0x04, 0xab, 0x3d, 0xdd, 0xe4, 0xd2, 0x3d, 
	0xef, 0x6f, 0x7e, 0xbc, 0x8d, 0x3d, 0x1b, 0x3d, 0x07, 0x0b, 0x58, 0x3e, 
	0x79, 0x67, 0x6e, 0xbd, 0x2a, 0xa0, 0x01, 0x3e, 0xa0, 0x45, 0x07, 0xbd, 
	0x54, 0x14, 0xb5, 0xbe, 0x9e, 0x62, 0x19, 0x3e, 0xf3, 0x31, 0xc0, 0xbd, 
	0x9f, 0x38, 0x21, 0xbf, 0x9e, 0x90, 0x4a, 0x3d, 0x59, 0xb6, 0x01, 0xbe, 
	0x16, 0x0c, 0x6d, 0x3e, 0xb9, 0x9d, 0x1e, 0x3b, 0xdf, 0xbf, 0xbd, 0xbe, 
	0x5f, 0x39, 0x71, 0xbc, 0x90, 0x9a, 0x12, 0xbe, 0x5c, 0x47, 0xe6, 0x3d, 
	0x9d, 0x39, 0x9a, 0xbc, 0xbf, 0x8b, 0x9f, 0x3d, 0x21, 0xe9, 0x28, 0xbe, 
	0x1b, 0x8b, 0x98, 0xbd, 0x7a, 0xc3, 0x32, 0x3e, 0x5b, 0x9f, 0x85, 0x3d, 
	0x14, 0x21, 0x67, 0x3e, 0xdd, 0xb6, 0x2c, 0x3e, 0xae, 0xd3, 0x0c, 0xbf, 
	0x1c, 0xa8, 0x2b, 0x3e, 0x9f, 0xc9, 0xe2, 0xbc, 0x08, 0x18, 0x70, 0x3e, 
	0xd1, 0x1e, 0x43, 0x3e, 0xf5, 0x81, 0x86, 0x3c, 0xa2, 0xbd, 0x01, 0x3e, 
	0x5d, 0x95, 0x6d, 0xbe, 0x3a, 0x73, 0x7d, 0xbe, 0x82, 0x5c, 0xa1, 0xbd, 
	0x96, 0xd7, 0xe3, 0x3e, 0xf8, 0x7c, 0x14, 0x3d, 0x76, 0x46, 0x10, 0xbe, 
	0xd6, 0x74, 0x2e, 0x3e, 0xfe, 0x2d, 0x61, 0x3e, 0xc3, 0x44, 0x51, 0xbe, 
	0xc8, 0xe1, 0x8c, 0xbe, 0x19, 0xab, 0x9b, 0x3d, 0x44, 0x5a, 0x08, 0x3e, 
	0xf3, 0xc0, 0x1d, 0x3e, 0x14, 0xce, 0x52, 0x3e, 0xea, 0x48, 0x52, 0x3b, 
	0x08, 0x5a, 0x9a, 0x3d, 0xe5, 0x13, 0x6e, 0xbd, 0x87, 0xeb, 0x67, 0xbb, 
	0x8b, 0xaf, 0xab, 0x3d, 0x9e, 0x2c, 0x9a, 0x3e, 0x7d, 0x2e, 0x89, 0xbe, 
	0xcf, 0x29, 0x22, 0xbf, 0x6c, 0xd7, 0xc4, 0xbd, 0x73, 0xb9, 0x37, 0xbe, 
	0x0d, 0x33, 0xc8, 0x3d, 0x17, 0x61, 0xba, 0x3c, 0x05, 0x43, 0xd2, 0xbe, 
	0x59, 0x15, 0x25, 0x3d, 0x60, 0x68, 0x8e, 0x3d, 0x96, 0xe6, 0xec, 0xbe, 
	0xe1, 0x75, 0x48, 0x3c, 0xba, 0xe8, 0x49, 0xbe, 0xf8, 0x29, 0x5d, 0xbf, 
	0xe2, 0x92, 0x29, 0xbe, 0x16, 0x06, 0x23, 0xbe, 0x6b, 0x4c, 0xb6, 0x3e, 
	0x46, 0xb4, 0x54, 0xbd, 0x2b, 0x36, 0x85, 0xbd, 0x22, 0x3a, 0xe9, 0x3d, 
	0xb7, 0x52, 0x80, 0xbb, 0xf2, 0x72, 0x85, 0xbf, 0x36, 0x80, 0x65, 0xbe, 
	0x49, 0xf1, 0x39, 0x3d, 0x33, 0x2f, 0x38, 0x3e, 0xff, 0x52, 0x77, 0xbe, 
	0xbe, 0x2b, 0xce, 0xbb, 0x3c, 0x9d, 0xb7, 0x3d, 0x4a, 0x55, 0xd1, 0xbc, 
	0x98, 0x37, 0x1c, 0xbf, 0x71, 0xc0, 0xc3, 0xbd, 0xd0, 0xc7, 0x44, 0xbd, 
	0x9d, 0xde, 0x73, 0x3e, 0x9d, 0xe9, 0x67, 0xbe, 0xeb, 0xee, 0x8f, 0xbe, 
	0x12, 0xab, 0xb9, 0xbd, 0x94, 0x23, 0xe7, 0x3d, 0xad, 0x79, 0x0f, 0xbf, 
	0x85, 0x83, 0x5a, 0x3e, 0x13, 0x44, 0x2c, 0x3d, 0x74, 0xe1, 0xd1, 0xbd, 
	0xb9, 0x5c, 0x6a, 0xbd, 0x45, 0xf5, 0xf5, 0xbc, 0x70, 0xe7, 0xc0, 0x3c, 
	0x75, 0x13, 0x16, 0x3e, 0x68, 0x42, 0x13, 0xbe, 0xcc, 0x28, 0x02, 0x3e, 
	0x7e, 0xa1, 0x95, 0x3b, 0xb0, 0xfe, 0xdd, 0x3d, 0xbe, 0x20, 0xc5, 0xbe, 
	0x6b, 0xbb, 0x9d, 0xbe, 0x69, 0x1c, 0x1a, 0xbe, 0x78, 0x15, 0xf3, 0xbe, 
	0xe0, 0x33, 0x96, 0x3e, 0xdb, 0x02, 0x05, 0x3e, 0xc6, 0xff, 0x4f, 0x3e, 
	0xac, 0xfd, 0xda, 0xbd, 0x1b, 0x5b, 0xe2, 0xbe, 0x28, 0xea, 0x41, 0xbe, 
	0x09, 0x60, 0x9b, 0xbe, 0x9d, 0x5d, 0xcd, 0xbe, 0x4c, 0xc6, 0x59, 0x3c, 
	0xdb, 0xa7, 0x5d, 0x3e, 0x71, 0x9b, 0x17, 0xbe, 0x9d, 0xa5, 0x02, 0x3e, 
	0xf4, 0x5c, 0xa2, 0xbe, 0x6c, 0xcf, 0x30, 0xbf, 0x2f, 0x7e, 0x95, 0xbe, 
	0x50, 0x11, 0xda, 0xbe, 0x85, 0x56, 0x1a, 0xbe, 0x1c, 0x99, 0x9f, 0x3e, 
	0xe9, 0xca, 0xfb, 0x3b, 0x90, 0xff, 0x98, 0xbe, 0xfe, 0x71, 0xd4, 0xbe, 
	0xe4, 0xac, 0x68, 0xbe, 0x96, 0xf8, 0x32, 0xbe, 0xbb, 0x36, 0xac, 0xbe, 
	0xff, 0x53, 0x90, 0xbe, 0xd4, 0x6a, 0x6c, 0x39, 0xb2, 0xd0, 0xe5, 0xbd, 
	0xd8, 0xb8, 0xe8, 0x3a, 0x0d, 0x2a, 0xb5, 0xbe, 0x1a, 0xe1, 0x39, 0xbe, 
	0x22, 0xcf, 0x4e, 0xbe, 0x6a, 0xc3, 0x25, 0xbe, 0xea, 0x01, 0x6c, 0xbe, 
	0xe1, 0x39, 0xb8, 0xbc, 0x8c, 0x7d, 0xef, 0xbd, 0x7a, 0x35, 0x86, 0xbe, 
	0x6d, 0x76, 0x51, 0xbe, 0x63, 0x32, 0x15, 0x3d, 0x2c, 0xeb, 0x28, 0xbe, 
	0xc0, 0x5f, 0xa2, 0xbc, 0x9b, 0x2e, 0xd7, 0xbd, 0x68, 0x15, 0x38, 0xbe, 
	0xd1, 0xa3, 0x77, 0xbe, 0xde, 0xd4, 0x1f, 0xbe, 0x13, 0x45, 0x8c, 0xbe, 
	0xb9, 0x92, 0xcc, 0xbd, 0x76, 0x3b, 0xec, 0xbd, 0x3e, 0xb1, 0x43, 0xbe, 
	0x8f, 0x36, 0x56, 0x3e, 0xa8, 0x8b, 0xa6, 0x3d, 0x91, 0x97, 0x44, 0x3e, 
	0x07, 0x92, 0xa8, 0xbe, 0xc9, 0x3d, 0x73, 0xbe, 0x19, 0xde, 0x94, 0x3e, 
	0xca, 0x2b, 0xd1, 0xbd, 0x68, 0x80, 0xd3, 0x3d, 0xf2, 0xd4, 0x33, 0x3e, 
	0xca, 0x6e, 0x1b, 0x3d, 0xe9, 0xe0, 0x8f, 0xbe, 0x3f, 0x96, 0x94, 0xbe, 
	0x8c, 0x27, 0x55, 0xbe, 0xe5, 0x2d, 0xb2, 0x3b, 0xb8, 0x7f, 0x49, 0xbe, 
	0xfc, 0x08, 0x10, 0xbe, 0x97, 0x3d, 0x40, 0x3e, 0xe8, 0xc3, 0x92, 0xbe, 
	0xbb, 0xd3, 0xb6, 0xbe, 0x2f, 0x41, 0xc3, 0xbe, 0x35, 0x46, 0x30, 0xbe, 
	0xdd, 0x79, 0x3c, 0xbe, 0x36, 0x65, 0x59, 0xbe, 0x54, 0xc7, 0xb0, 0xbd, 
	0x77, 0xfc, 0xac, 0x3d, 0x1f, 0xd8, 0xb0, 0xbd, 0xe2, 0x72, 0xbd, 0xbe, 
	0x62, 0x20, 0x8d, 0xbe, 0xf6, 0x7c, 0x1b, 0xbe, 0xd4, 0x7a, 0x55, 0xbe, 
	0x7c, 0x0f, 0xec, 0xbd, 0xed, 0x39, 0x22, 0xbe, 0xb5, 0x51, 0x64, 0xbe, 
	0x02, 0xec, 0x8c, 0x3d, 0x87, 0x73, 0x82, 0xbe, 0x28, 0x84, 0x8b, 0xbe, 
	0xb5, 0x39, 0x23, 0xbe, 0xd6, 0x12, 0x54, 0xbd, 0xd7, 0x87, 0xa9, 0xbd, 
	0x2c, 0xa7, 0x19, 0xbe, 0x95, 0xa5, 0x1f, 0xbe, 0x86, 0xcc, 0xc8, 0xbd, 
	0x4c, 0x43, 0x5d, 0xbd, 0x22, 0x87, 0x67, 0xbe, 0x6f, 0x5e, 0x37, 0xbe, 
	0x82, 0x40, 0xa7, 0x3d, 0x4a, 0x5c, 0x81, 0x3c, 0x45, 0xc4, 0x38, 0x3d, 
	0x92, 0xfe, 0xff, 0xff, 0x10, 0x00, 0x00, 0x00, 0x05, 0x00, 0x00, 0x00, 
	0x14, 0x00, 0x00, 0x00, 0x2c, 0x00, 0x00, 0x00, 0x02, 0x00, 0x00, 0x00, 
	0x0a, 0x00, 0x00, 0x00, 0x20, 0x01, 0x00, 0x00, 0x17, 0x00, 0x00, 0x00, 
	0x73, 0x65, 0x71, 0x75, 0x65, 0x6e, 0x74, 0x69, 0x61, 0x6c, 0x2f, 0x64, 
	0x65, 0x6e, 0x73, 0x65, 0x2f, 0x4d, 0x61, 0x74, 0x4d, 0x75, 0x6c, 0x00, 
	0xfc, 0xfd, 0xff, 0xff, 0x06, 0xff, 0xff, 0xff, 0x04, 0x00, 0x00, 0x00, 
	0x08, 0x00, 0x00, 0x00, 0xff, 0xff, 0xff, 0xff, 0x20, 0x01, 0x00, 0x00, 
	0x00, 0x00, 0x0e, 0x00, 0x18, 0x00, 0x08, 0x00, 0x07, 0x00, 0x0c, 0x00, 
	0x10, 0x00, 0x14, 0x00, 0x0e, 0x00, 0x00, 0x00, 0x00, 0x00, 0x00, 0x02, 
	0x10, 0x00, 0x00, 0x00, 0x04, 0x00, 0x00, 0x00, 0x10, 0x00, 0x00, 0x00, 
	0x2c, 0x00, 0x00, 0x00, 0x01, 0x00, 0x00, 0x00, 0x02, 0x00, 0x00, 0x00, 
	0x18, 0x00, 0x00, 0x00, 0x73, 0x65, 0x71, 0x75, 0x65, 0x6e, 0x74, 0x69, 
	0x61, 0x6c, 0x2f, 0x66, 0x6c, 0x61, 0x74, 0x74, 0x65, 0x6e, 0x2f, 0x43, 
	0x6f, 0x6e, 0x73, 0x74, 0x00, 0x00, 0x00, 0x00, 0x64, 0xfe, 0xff, 0xff, 
	0x6e, 0xff, 0xff, 0xff, 0x04, 0x00, 0x00, 0x00, 0x28, 0x00, 0x00, 0x00, 
	0x92, 0x73, 0xc6, 0xbb, 0x35, 0x28, 0x96, 0xbd, 0x45, 0xdd, 0x56, 0x3c, 
	0xa5, 0x85, 0x68, 0x3d, 0x0e, 0x15, 0x7e, 0xb9, 0xa4, 0x3a, 0xb7, 0xbc, 
	0x42, 0xd5, 0x32, 0x3c, 0xbc, 0x8d, 0xc0, 0x3c, 0x0d, 0x7d, 0x3b, 0xbb, 
	0x72, 0xce, 0xb6, 0x39, 0x6e, 0xff, 0xff, 0xff, 0x10, 0x00, 0x00, 0x00, 
	0x03, 0x00, 0x00, 0x00, 0x10, 0x00, 0x00, 0x00, 0x48, 0x00, 0x00, 0x00, 
	0x01, 0x00, 0x00, 0x00, 0x0a, 0x00, 0x00, 0x00, 0x30, 0x00, 0x00, 0x00, 
	0x73, 0x65, 0x71, 0x75, 0x65, 0x6e, 0x74, 0x69, 0x61, 0x6c, 0x2f, 0x64, 
	0x65, 0x6e, 0x73, 0x65, 0x2f, 0x42, 0x69, 0x61, 0x73, 0x41, 0x64, 0x64, 
	0x2f, 0x52, 0x65, 0x61, 0x64, 0x56, 0x61, 0x72, 0x69, 0x61, 0x62, 0x6c, 
	0x65, 0x4f, 0x70, 0x2f, 0x72, 0x65, 0x73, 0x6f, 0x75, 0x72, 0x63, 0x65, 
	0x00, 0x00, 0x00, 0x00, 0x04, 0x00, 0x06, 0x00, 0x04, 0x00, 0x00, 0x00, 
	0x00, 0x00, 0x06, 0x00, 0x08, 0x00, 0x04, 0x00, 0x06, 0x00, 0x00, 0x00, 
	0x04, 0x00, 0x00, 0x00, 0x20, 0x00, 0x00, 0x00, 0x16, 0x9f, 0xb9, 0x3e, 
	0xa5, 0x58, 0xf4, 0x3e, 0x9c, 0x66, 0x4d, 0x3a, 0x2b, 0x11, 0xb2, 0x3e, 
	0xe3, 0xaa, 0x20, 0x3e, 0xb8, 0xf6, 0x8b, 0x3e, 0xc8, 0xf6, 0x9a, 0x3d, 
	0x7c, 0xcf, 0x56, 0x3e, 0x00, 0x00, 0x0e, 0x00, 0x14, 0x00, 0x04, 0x00, 
	0x00, 0x00, 0x08, 0x00, 0x0c, 0x00, 0x10, 0x00, 0x0e, 0x00, 0x00, 0x00, 
	0x10, 0x00, 0x00, 0x00, 0x02, 0x00, 0x00, 0x00, 0x10, 0x00, 0x00, 0x00, 
	0x44, 0x00, 0x00, 0x00, 0x01, 0x00, 0x00, 0x00, 0x08, 0x00, 0x00, 0x00, 
	0x31, 0x00, 0x00, 0x00, 0x73, 0x65, 0x71, 0x75, 0x65, 0x6e, 0x74, 0x69, 
	0x61, 0x6c, 0x2f, 0x63, 0x6f, 0x6e, 0x76, 0x32, 0x64, 0x2f, 0x42, 0x69, 
	0x61, 0x73, 0x41, 0x64, 0x64, 0x2f, 0x52, 0x65, 0x61, 0x64, 0x56, 0x61, 
	0x72, 0x69, 0x61, 0x62, 0x6c, 0x65, 0x4f, 0x70, 0x2f, 0x72, 0x65, 0x73, 
	0x6f, 0x75, 0x72, 0x63, 0x65, 0x00, 0x00, 0x00, 0x90, 0xff, 0xff, 0xff, 
	0x14, 0x00, 0x18, 0x00, 0x04, 0x00, 0x00, 0x00, 0x08, 0x00, 0x0c, 0x00, 
	0x10, 0x00, 0x00, 0x00, 0x00, 0x00, 0x14, 0x00, 0x14, 0x00, 0x00, 0x00, 
	0x14, 0x00, 0x00, 0x00, 0x01, 0x00, 0x00, 0x00, 0x20, 0x00, 0x00, 0x00, 
	0x44, 0x00, 0x00, 0x00, 0x2c, 0x00, 0x00, 0x00, 0x04, 0x00, 0x00, 0x00, 
	0x01, 0x00, 0x00, 0x00, 0x08, 0x00, 0x00, 0x00, 0x08, 0x00, 0x00, 0x00, 
	0x01, 0x00, 0x00, 0x00, 0x0c, 0x00, 0x00, 0x00, 0x63, 0x6f, 0x6e, 0x76, 
	0x32, 0x64, 0x5f, 0x69, 0x6e, 0x70, 0x75, 0x74, 0x00, 0x00, 0x00, 0x00, 
	0x04, 0x00, 0x00, 0x00, 0xff, 0xff, 0xff, 0xff, 0x08, 0x00, 0x00, 0x00, 
	0x08, 0x00, 0x00, 0x00, 0x01, 0x00, 0x00, 0x00, 0xfc, 0xff, 0xff, 0xff, 
	0x04, 0x00, 0x04, 0x00, 0x04, 0x00, 0x00, 0x00
};
const int digits_model_len = 13460;